{
  "version": "1.0",
  "truncation": null,
  "padding": null,
  "added_tokens": [
    {
      "id": 0,
      "content": "<pad>",
      "single_word": false,
      "lstrip": false,
      "rstrip": false,
      "normalized": false,
      "special": true
    },
    {
      "id": 1,
      "content": "<im_start>",
      "single_word": false,
      "lstrip": false,
      "rstrip": false,
      "normalized": false,
      "special": true
    },
    {
      "id": 2,
      "content": "<im_end>",
      "single_word": false,
      "lstrip": false,
      "rstrip": false,
      "normalized": false,
      "special": true
    },
    {
      "id": 3,
      "content": "<image>",
      "single_word": false,
      "lstrip": false,
      "rstrip": false,
      "normalized": false,
      "special": true
    }
  ],
  "normalizer": null,
  "pre_tokenizer": {
    "type": "ByteLevel",
    "add_prefix_space": false,
    "trim_offsets": true,
    "use_regex": true
  },
  "post_processor": null,
  "decoder": {
    "type": "ByteLevel",
    "add_prefix_space": true,
    "trim_offsets": true,
    "use_regex": true
  },
  "model": {
    "type": "BPE",
    "dropout": null,
    "unk_token": null,
    "continuing_subword_prefix": null,
    "end_of_word_suffix": null,
    "fuse_unk": false,
    "byte_fallback": false,
    "ignore_merges": false,
    "vocab": {
      "<pad>": 0,
      "<im_start>": 1,
      "<im_end>": 2,
      "<image>": 3,
      "!": 4,
      "\"": 5,
      "#": 6,
      "$": 7,
      "%": 8,
      "&": 9,
      "'": 10,
      "(": 11,
      ")": 12,
      "*": 13,
      "+": 14,
      ",": 15,
      "-": 16,
      ".": 17,
      "/": 18,
      "0": 19,
      "1": 20,
      "2": 21,
      "3": 22,
      "4": 23,
      "5": 24,
      "6": 25,
      "7": 26,
      "8": 27,
      "9": 28,
      ":": 29,
      ";": 30,
      "<": 31,
      "=": 32,
      ">": 33,
      "?": 34,
      "@": 35,
      "A": 36,
      "B": 37,
      "C": 38,
      "D": 39,
      "E": 40,
      "F": 41,
      "G": 42,
      "H": 43,
      "I": 44,
      "J": 45,
      "K": 46,
      "L": 47,
      "M": 48,
      "N": 49,
      "O": 50,
      "P": 51,
      "Q": 52,
      "R": 53,
      "S": 54,
      "T": 55,
      "U": 56,
      "V": 57,
      "W": 58,
      "X": 59,
      "Y": 60,
      "Z": 61,
      "[": 62,
      "\\": 63,
      "]": 64,
      "^": 65,
      "_": 66,
      "`": 67,
      "a": 68,
      "b": 69,
      "c": 70,
      "d": 71,
      "e": 72,
      "f": 73,
      "g": 74,
      "h": 75,
      "i": 76,
      "j": 77,
      "k": 78,
      "l": 79,
      "m": 80,
      "n": 81,
      "o": 82,
      "p": 83,
      "q": 84,
      "r": 85,
      "s": 86,
      "t": 87,
      "u": 88,
      "v": 89,
      "w": 90,
      "x": 91,
      "y": 92,
      "z": 93,
      "{": 94,
      "|": 95,
      "}": 96,
      "~": 97,
      "¡": 98,
      "¢": 99,
      "£": 100,
      "¤": 101,
      "¥": 102,
      "¦": 103,
      "§": 104,
      "¨": 105,
      "©": 106,
      "ª": 107,
      "«": 108,
      "¬": 109,
      "®": 110,
      "¯": 111,
      "°": 112,
      "±": 113,
      "²": 114,
      "³": 115,
      "´": 116,
      "µ": 117,
      "¶": 118,
      "·": 119,
      "¸": 120,
      "¹": 121,
      "º": 122,
      "»": 123,
      "¼": 124,
      "½": 125,
      "¾": 126,
      "¿": 127,
      "À": 128,
      "Á": 129,
      "Â": 130,
      "Ã": 131,
      "Ä": 132,
      "Å": 133,
      "Æ": 134,
      "Ç": 135,
      "È": 136,
      "É": 137,
      "Ê": 138,
      "Ë": 139,
      "Ì": 140,
      "Í": 141,
      "Î": 142,
      "Ï": 143,
      "Ð": 144,
      "Ñ": 145,
      "Ò": 146,
      "Ó": 147,
      "Ô": 148,
      "Õ": 149,
      "Ö": 150,
      "×": 151,
      "Ø": 152,
      "Ù": 153,
      "Ú": 154,
      "Û": 155,
      "Ü": 156,
      "Ý": 157,
      "Þ": 158,
      "ß": 159,
      "à": 160,
      "á": 161,
      "â": 162,
      "ã": 163,
      "ä": 164,
      "å": 165,
      "æ": 166,
      "ç": 167,
      "è": 168,
      "é": 169,
      "ê": 170,
      "ë": 171,
      "ì": 172,
      "í": 173,
      "î": 174,
      "ï": 175,
      "ð": 176,
      "ñ": 177,
      "ò": 178,
      "ó": 179,
      "ô": 180,
      "õ": 181,
      "ö": 182,
      "÷": 183,
      "ø": 184,
      "ù": 185,
      "ú": 186,
      "û": 187,
      "ü": 188,
      "ý": 189,
      "þ": 190,
      "ÿ": 191,
      "Ā": 192,
      "ā": 193,
      "Ă": 194,
      "ă": 195,
      "Ą": 196,
      "ą": 197,
      "Ć": 198,
      "ć": 199,
      "Ĉ": 200,
      "ĉ": 201,
      "Ċ": 202,
      "ċ": 203,
      "Č": 204,
      "č": 205,
      "Ď": 206,
      "ď": 207,
      "Đ": 208,
      "đ": 209,
      "Ē": 210,
      "ē": 211,
      "Ĕ": 212,
      "ĕ": 213,
      "Ė": 214,
      "ė": 215,
      "Ę": 216,
      "ę": 217,
      "Ě": 218,
      "ě": 219,
      "Ĝ": 220,
      "ĝ": 221,
      "Ğ": 222,
      "ğ": 223,
      "Ġ": 224,
      "ġ": 225,
      "Ģ": 226,
      "ģ": 227,
      "Ĥ": 228,
      "ĥ": 229,
      "Ħ": 230,
      "ħ": 231,
      "Ĩ": 232,
      "ĩ": 233,
      "Ī": 234,
      "ī": 235,
      "Ĭ": 236,
      "ĭ": 237,
      "Į": 238,
      "į": 239,
      "İ": 240,
      "ı": 241,
      "Ĳ": 242,
      "ĳ": 243,
      "Ĵ": 244,
      "ĵ": 245,
      "Ķ": 246,
      "ķ": 247,
      "ĸ": 248,
      "Ĺ": 249,
      "ĺ": 250,
      "Ļ": 251,
      "ļ": 252,
      "Ľ": 253,
      "ľ": 254,
      "Ŀ": 255,
      "ŀ": 256,
      "Ł": 257,
      "ł": 258,
      "Ń": 259,
      "ï¼": 260,
      "ä¸": 261,
      "ï¼Į": 262,
      "ãĢ": 263,
      "äº": 264,
      "çļ": 265,
      "çļĦ": 266,
      "Ġt": 267,
      "Ġa": 268,
      "in": 269,
      "æľ": 270,
      "åħ": 271,
      "he": 272,
      "åı": 273,
      "å¤": 274,
      "ä»": 275,
      "ãĢĤ": 276,
      "è¿": 277,
      "å®": 278,
      "re": 279,
      "åľ": 280,
      "on": 281,
      "åĪ": 282,
      "er": 283,
      "æĺ": 284,
      "åĲ": 285,
      "Ġs": 286,
      "ä½": 287,
      "Ġthe": 288,
      "æĹ": 289,
      "or": 290,
      "åĬ": 291,
      "Ġw": 292,
      "at": 293,
      "nd": 294,
      "ç»": 295,
      "ä¹": 296,
      "ou": 297,
      "ä¸Ģ": 298,
      "åĽ": 299,
      "æĸ": 300,
      "å°": 301,
      "Ġc": 302,
      "æĪ": 303,
      "å¸": 304,
      "ãĢģ": 305,
      "çĶ": 306,
      "å¹": 307,
      "it": 308,
      "es": 309,
      "åį": 310,
      "æĺ¯": 311,
      "è®": 312,
      "is": 313,
      "Ġf": 314,
      "ä¼": 315,
      "ing": 316,
      "æĿ": 317,
      "en": 318,
      "Ġp": 319,
      "âĢ": 320,
      "Ġb": 321,
      "äºĨ": 322,
      "Ġo": 323,
      "åľ¨": 324,
      "å·": 325,
      "è¯": 326,
      "åŃ": 327,
      "an": 328,
      "al": 329,
      "å¼": 330,
      "ed": 331,
      "ar": 332,
      "æī": 333,
      "Ġto": 334,
      "äºº": 335,
      "Ġand": 336,
      "Ġm": 337,
      "åĮ": 338,
      "åĩ": 339,
      "Ġin": 340,
      "éĩ": 341,
      "æľī": 342,
      "ä¸į": 343,
      "åĨ": 344,
      "ä¸Ń": 345,
      "Ġof": 346,
      "å¤§": 347,
      "èµ": 348,
      "èĢ": 349,
      "å¾": 350,
      "è¡": 351,
      "éĢ": 352,
      "çĽ": 353,
      "å±": 354,
      "ic": 355,
      "å¥": 356,
      "le": 357,
      "Ġd": 358,
      "çİ": 359,
      "æĬ": 360,
      "åº": 361,
      "om": 362,
      "è´": 363,
      "as": 364,
      "å¯": 365,
      "æł": 366,
      "ĥ½": 367,
      "Ġh": 368,
      "ion": 369,
      "çº": 370,
      "ä¸º": 371,
      "åİ": 372,
      "å¹´": 373,
      "æĶ": 374,
      "ä¸Ĭ": 375,
      "æķ": 376,
      "çľ": 377,
      "åĽ½": 378,
      "è§": 379,
      "è¿Ļ": 380,
      "ç§": 381,
      "åĳ": 382,
      "éĻ": 383,
      "éĹ": 384,
      "åĴ": 385,
      "ä¸ª": 386,
      "il": 387,
      "æ°": 388,
      "éĿ": 389,
      "å¸Ĥ": 390,
      "Ġth": 391,
      "æŃ": 392,
      "åĴĮ": 393,
      "Ġy": 394,
      "çī": 395,
      "æİ": 396,
      "æĹ¶": 397,
      "ĠT": 398,
      "è½": 399,
      "Ġl": 400,
      "æĿ¥": 401,
      "ro": 402,
      "æĢ": 403,
      "ent": 404,
      "æ¯": 405,
      "åıĳ": 406,
      "æĹ¥": 407,
      "èĩ": 408,
      "ä¼ļ": 409,
      "å½": 410,
      "20": 411,
      "åĩº": 412,
      "æ²": 413,
      "ve": 414,
      "st": 415,
      "åĪ°": 416,
      "éĺ": 417,
      "åŃ¦": 418,
      "æĸ°": 419,
      "å®¶": 420,
      "åī": 421,
      "å¿": 422,
      "çĶŁ": 423,
      "æĥ": 424,
      "ä»¥": 425,
      "ĠI": 426,
      "Ġe": 427,
      "ĠS": 428,
      "æµ": 429,
      "ä¸ļ": 430,
      "é¢": 431,
      "Ġre": 432,
      "æĭ": 433,
      "Ġyou": 434,
      "ä¿": 435,
      "æ¬": 436,
      "Ġn": 437,
      "ct": 438,
      "et": 439,
      "¦ģ": 440,
      "è¾": 441,
      "ĠC": 442,
      "æľĪ": 443,
      "è¡Į": 444,
      "Ġg": 445,
      "æ³": 446,
      "ä½ľ": 447,
      "Ġis": 448,
      "ç½": 449,
      "è¦ģ": 450,
      "ĠA": 451,
      "å·¥": 452,
      "å¼Ģ": 453,
      "ï¼ļ": 454,
      "çĲ": 455,
      "åħ¨": 456,
      "å¯¹": 457,
      "åħ¬": 458,
      "åŁ": 459,
      "æ±": 460,
      "Ġfor": 461,
      "el": 462,
      "åľ°": 463,
      "å°±": 464,
      "éķ": 465,
      "çŃ": 466,
      "ä¹Ł": 467,
      "å¤ļ": 468,
      "èĥ½": 469,
      "æŀ": 470,
      "èĤ": 471,
      "æĪĲ": 472,
      "æĮ": 473,
      "Ġon": 474,
      "åĲİ": 475,
      "ol": 476,
      "ow": 477,
      "æ¸": 478,
      "é«": 479,
      "id": 480,
      "éĥ": 481,
      "ay": 482,
      "ä¸ĭ": 483,
      "é«ĺ": 484,
      "åĵ": 485,
      "ot": 486,
      "æĦ": 487,
      "çİ°": 488,
      "åĮº": 489,
      "åĬ¨": 490,
      "åĪĨ": 491,
      "ra": 492,
      "ä¾": 493,
      "ig": 494,
      "ly": 495,
      "âĢľ": 496,
      "è¿Ľ": 497,
      "åīį": 498,
      "us": 499,
      "ç»ı": 500,
      "äºİ": 501,
      "âĢĿ": 502,
      "Ġbe": 503,
      "è·": 504,
      "è½¦": 505,
      "ch": 506,
      "æĪĳ": 507,
      "å®ŀ": 508,
      "åı¯": 509,
      "ce": 510,
      "ith": 511,
      "çĤ": 512,
      "éģ": 513,
      "æ´": 514,
      "å§": 515,
      "èĩª": 516,
      "ä»¬": 517,
      "éĥ½": 518,
      "ĠM": 519,
      "éĽ": 520,
      "ç«": 521,
      "è¿ĩ": 522,
      "å»": 523,
      "éĥ¨": 524,
      "æĸ¹": 525,
      "ver": 526,
      "å°ı": 527,
      "im": 528,
      "æĥħ": 529,
      "å¦": 530,
      "åģ": 531,
      "ç¤": 532,
      "ur": 533,
      "ä»ĸ": 534,
      "ation": 535,
      "ĠP": 536,
      "Ġwith": 537,
      "ç¾": 538,
      "éķ¿": 539,
      "åľº": 540,
      "Ġst": 541,
      "ut": 542,
      "æĽ": 543,
      "çĶ¨": 544,
      "am": 545,
      "èģ": 546,
      "ad": 547,
      "éĿ¢": 548,
      "ĠW": 549,
      "ĠB": 550,
      "æľĢ": 551,
      "é¡": 552,
      "æĻ": 553,
      "åĬĽ": 554,
      "çĸ": 555,
      "ç¬": 556,
      "å¤©": 557,
      "è¶": 558,
      "è°": 559,
      "è¿ĺ": 560,
      "ir": 561,
      "èī": 562,
      "èĢħ": 563,
      "åŃĲ": 564,
      "å¥½": 565,
      "201": 566,
      "äº§": 567,
      "ç®": 568,
      "æ¯Ķ": 569,
      "ä¸»": 570,
      "æľ¬": 571,
      "æį": 572,
      "åĳĺ": 573,
      "çĿ": 574,
      "åĲĮ": 575,
      "å¾Ĺ": 576,
      "ä½ĵ": 577,
      "æŁ": 578,
      "å»º": 579,
      "ä¹ĭ": 580,
      "æı": 581,
      "çľĭ": 582,
      "éĢļ": 583,
      "åĲĪ": 584,
      "çŃī": 585,
      "å¾Ī": 586,
      "åĬł": 587,
      "00": 588,
      "çĽ®": 589,
      "ĠThe": 590,
      "åĿ": 591,
      "éļ": 592,
      "éĩį": 593,
      "åħ³": 594,
      "å±ķ": 595,
      "èĢĮ": 596,
      "æ¶": 597,
      "æ°ĳ": 598,
      "å®ī": 599,
      "çŁ": 600,
      "å°Ĩ": 601,
      "Ġthat": 602,
      "å¿ĥ": 603,
      "ers": 604,
      "éĹ´": 605,
      "çĤ¹": 606,
      "è¯´": 607,
      "ç½ĳ": 608,
      "çĲĨ": 609,
      "âĢĻ": 610,
      "ä½į": 611,
      "ul": 612,
      "èµĽ": 613,
      "æ¬¡": 614,
      "Ġan": 615,
      "Ġare": 616,
      "ĠD": 617,
      "æ³ķ": 618,
      "åħ¶": 619,
      "Ġpro": 620,
      "åĢ": 621,
      "å®ļ": 622,
      "Ġ1": 623,
      "æľº": 624,
      "un": 625,
      "åĲį": 626,
      "Ġit": 627,
      "ĠH": 628,
      "ĠF": 629,
      "æľŁ": 630,
      "å¢": 631,
      "ill": 632,
      "ç¨": 633,
      "è¢": 634,
      "ge": 635,
      "ï¼Ī": 636,
      "Ġal": 637,
      "èĬ": 638,
      "çľģ": 639,
      "ç¬¬": 640,
      "æĬ¥": 641,
      "é£": 642,
      "ç©": 643,
      "ï¼ī": 644,
      "our": 645,
      "åĮĸ": 646,
      "è®¾": 647,
      "ä¸İ": 648,
      "Ġhe": 649,
      "æĸĩ": 650,
      "oo": 651,
      "ä¸ī": 652,
      "äºĭ": 653,
      "çĦ": 654,
      "ter": 655,
      "å·¥ä½ľ": 656,
      "èµĦ": 657,
      "éģĵ": 658,
      "æģ": 659,
      "åħ¥": 660,
      "åĨħ": 661,
      "se": 662,
      "èµ·": 663,
      "å½ĵ": 664,
      "Ġwe": 665,
      "if": 666,
      "ä½Ĩ": 667,
      "out": 668,
      "å¤ĸ": 669,
      "æīĢ": 670,
      "çĿĢ": 671,
      "èĲ": 672,
      "åº¦": 673,
      "èĭ": 674,
      "å¸¸": 675,
      "Ġas": 676,
      "è®°": 677,
      "éĶ": 678,
      "åĬ¡": 679,
      "ĠR": 680,
      "ç¾İ": 681,
      "Ġha": 682,
      "est": 683,
      "æĶ¿": 684,
      "éĩĮ": 685,
      "å¦Ĥ": 686,
      "Ġcom": 687,
      "ke": 688,
      "Ġwh": 689,
      "é©": 690,
      "ess": 691,
      "ĠL": 692,
      "ä¿Ŀ": 693,
      "åħĥ": 694,
      "æīĭ": 695,
      "æıĲ": 696,
      "è¥": 697,
      "ï¼ģ": 698,
      "pp": 699,
      "å·²": 700,
      "ä¸ĩ": 701,
      "åİ¿": 702,
      "è¢«": 703,
      "éĩĳ": 704,
      "ab": 705,
      "ck": 706,
      "çĦ¶": 707,
      "è¥¿": 708,
      "ãĢĬ": 709,
      "çĶµ": 710,
      "å¹³": 711,
      "ãĢĭ": 712,
      "è¡¨": 713,
      "Ġat": 714,
      "åĵģ": 715,
      "æĪ¿": 716,
      "Ġcon": 717,
      "Ġor": 718,
      "é¦": 719,
      "çī¹": 720,
      "Ġyour": 721,
      "éĺŁ": 722,
      "æĽ´": 723,
      "è£": 724,
      "æ¡": 725,
      "è®¡": 726,
      "ä»İ": 727,
      "åŁİ": 728,
      "çķ": 729,
      "Ġfr": 730,
      "èº": 731,
      "æ²¡": 732,
      "éľ": 733,
      "çĻ": 734,
      "æĺİ": 735,
      "åŀ": 736,
      "é¢ĺ": 737,
      "ate": 738,
      "igh": 739,
      "ment": 740,
      "çĪ": 741,
      "èī²": 742,
      "éĤ": 743,
      "çĽ¸": 744,
      "ä¸Ģä¸ª": 745,
      "èº«": 746,
      "ĠG": 747,
      "ç¡": 748,
      "ew": 749,
      "ï¼Ł": 750,
      "è·¯": 751,
      "ä¸ŃåĽ½": 752,
      "åıĬ": 753,
      "é¡¹": 754,
      "ĠE": 755,
      "ä¸¤": 756,
      "å¹¶": 757,
      "å±Ģ": 758,
      "åĽł": 759,
      "ist": 760,
      "æłĩ": 761,
      "åįĹ": 762,
      "å¼º": 763,
      "çł": 764,
      "ĠN": 765,
      "her": 766,
      "ort": 767,
      "çº§": 768,
      "Ġmo": 769,
      "çº¿": 770,
      "è¿ĳ": 771,
      "æīĵ": 772,
      "qu": 773,
      "åķ": 774,
      "æį®": 775,
      "ä»Ĭ": 776,
      "éħ": 777,
      "å§Ķ": 778,
      "æ°´": 779,
      "Ġex": 780,
      "çĲĥ": 781,
      "æµ·": 782,
      "å¼ı": 783,
      "æŃ£": 784,
      "æ·": 785,
      "ure": 786,
      "æķĻ": 787,
      "åĪ¶": 788,
      "ç²": 789,
      "op": 790,
      "ri": 791,
      "å¥³": 792,
      "åĪ©": 793,
      "åı¸": 794,
      "éĻ¢": 795,
      "ä¿¡": 796,
      "ity": 797,
      "æ´»": 798,
      "äº¤": 799,
      "æĦŁ": 800,
      "Ġv": 801,
      "èĢģ": 802,
      "ç³": 803,
      "Ġse": 804,
      "æŃ¤": 805,
      "ç±": 806,
      "æ¸¸": 807,
      "ĠO": 808,
      "åŀĭ": 809,
      "ç¥": 810,
      "æĢ§": 811,
      "æĦı": 812,
      "ä¸ľ": 813,
      "æķ°": 814,
      "åĲĦ": 815,
      "åĮĹ": 816,
      "art": 817,
      "çĹ": 818,
      "åİŁ": 819,
      "ç»Ħ": 820,
      "um": 821,
      "è®©": 822,
      "æĪĺ": 823,
      "ä¹Ī": 824,
      "ç¤º": 825,
      "å±±": 826,
      "å¸ĥ": 827,
      "èģĶ": 828,
      "æĹł": 829,
      "em": 830,
      "ant": 831,
      "ç®¡": 832,
      "èĪ": 833,
      "éĩı": 834,
      "æĿĳ": 835,
      "çĸ«": 836,
      "Ġfrom": 837,
      "ive": 838,
      "å²": 839,
      "çģ": 840,
      "ust": 841,
      "å·ŀ": 842,
      "åı°": 843,
      "çĥ": 844,
      "åįķ": 845,
      "pe": 846,
      "èİ": 847,
      "ä»»": 848,
      "æľį": 849,
      "ç´": 850,
      "æł·": 851,
      "èĩ³": 852,
      "éĹ¨": 853,
      "ç§ĳ": 854,
      "æĬĢ": 855,
      "ld": 856,
      "Ġ(": 857,
      "Ġthis": 858,
      "10": 859,
      "ç³»": 860,
      "åįģ": 861,
      "é»": 862,
      "äºĽ": 863,
      "çĽ´": 864,
      "æ°Ķ": 865,
      "ç¼": 866,
      "æİ¥": 867,
      "Ġde": 868,
      "Ġhave": 869,
      "éĵ": 870,
      "åŁº": 871,
      "éĴ": 872,
      "èĢĥ": 873,
      "æŀľ": 874,
      "åİ»": 875,
      "ç§į": 876,
      "and": 877,
      "èį": 878,
      "ç¨ĭ": 879,
      "ies": 880,
      "èĥ": 881,
      "æł¼": 882,
      "æł¡": 883,
      "åıĹ": 884,
      "Ġby": 885,
      "Ġus": 886,
      "nt": 887,
      "ç¤¾": 888,
      "ä»£": 889,
      "åħ¬åı¸": 890,
      "äºĮ": 891,
      "æ£": 892,
      "æĢ»": 893,
      "Ġcan": 894,
      "åºĶ": 895,
      "éĿŀ": 896,
      "all": 897,
      "æº": 898,
      "åı¯ä»¥": 899,
      "çŁ¥": 900,
      "éĢī": 901,
      "th": 902,
      "os": 903,
      "ç¦": 904,
      "ain": 905,
      "åĬŀ": 906,
      "ä»·": 907,
      "Ġr": 908,
      "ome": 909,
      "æİ¨": 910,
      "å¢ŀ": 911,
      "åķĨ": 912,
      "å£": 913,
      "æĪĳä»¬": 914,
      "Ġch": 915,
      "Ġsh": 916,
      "åħļ": 917,
      "Ġwas": 918,
      "è§£": 919,
      "up": 920,
      "ight": 921,
      "åĮ»": 922,
      "ï¼Ľ": 923,
      "æ¬¾": 924,
      "æĮģ": 925,
      "åı£": 926,
      "ä»¶": 927,
      "æĥ³": 928,
      "åıĳå±ķ": 929,
      "å¸Ī": 930,
      "res": 931,
      "æĶ¶": 932,
      "å°ĳ": 933,
      "éĢł": 934,
      "ä½ł": 935,
      "éĹ®": 936,
      "æ»": 937,
      "å·±": 938,
      "è°ĥ": 939,
      "é£İ": 940,
      "éĺ²": 941,
      "ard": 942,
      "åħ±": 943,
      "åģļ": 944,
      "æĹ¶éĹ´": 945,
      "ä¸ĵ": 946,
      "åĸ": 947,
      "æ²¡æľī": 948,
      "çī©": 949,
      "æ¹": 950,
      "ear": 951,
      "çİĭ": 952,
      "åĽŀ": 953,
      "èĩªå·±": 954,
      "åĪĽ": 955,
      "Ġwill": 956,
      "æ®": 957,
      "çĸ«æĥħ": 958,
      "çĹħ": 959,
      "ä¼ģ": 960,
      "ç¡®": 961,
      "è§Ħ": 962,
      "åĲĳ": 963,
      "ud": 964,
      "å¹¿": 965,
      "èĻ": 966,
      "èĦ": 967,
      "æĲ": 968,
      "å¯¼": 969,
      "è¾¾": 970,
      "æ¶Ī": 971,
      "æķ´": 972,
      "ä¼ł": 973,
      "æ¼": 974,
      "æŁ¥": 975,
      "éĤ£": 976,
      "åıª": 977,
      "ide": 978,
      "ç»Ļ": 979,
      "å¸¦": 980,
      "éĽĨ": 981,
      "ç»ĵ": 982,
      "è¿Ľè¡Į": 983,
      "æ±Ł": 984,
      "è¿Ĳ": 985,
      "åįİ": 986,
      "å¥¹": 987,
      "ä¼Ĺ": 988,
      "èĤ²": 989,
      "æĶ¹": 990,
      "ial": 991,
      "ast": 992,
      "å¤Ħ": 993,
      "è¯¥": 994,
      "å½±": 995,
      "éª": 996,
      "æģ¯": 997,
      "ä¹¦": 998,
      "åĪ«": 999,
      "ä¾ĭ": 1000,
      "æ²»": 1001,
      "é¦ĸ": 1002,
      "åĶ": 1003,
      "Ġle": 1004,
      "oc": 1005,
      "iv": 1006,
      "Ġwor": 1007,
      "åĽĽ": 1008,
      "ine": 1009,
      "é¢Ĩ": 1010,
      "Ġpl": 1011,
      "æĸ¯": 1012,
      "å¼ł": 1013,
      "æĤ": 1014,
      "Ġ2": 1015,
      "ag": 1016,
      "æºĲ": 1017,
      "æµģ": 1018,
      "rou": 1019,
      "Ġhas": 1020,
      "ĠJ": 1021,
      "èĬĤ": 1022,
      "age": 1023,
      "èĭ±": 1024,
      "èĮ": 1025,
      "æ±Ĥ": 1026,
      "å°±æĺ¯": 1027,
      "å¤´": 1028,
      "red": 1029,
      "ell": 1030,
      "éħį": 1031,
      "ect": 1032,
      "Ġall": 1033,
      "ĠTh": 1034,
      "å®Į": 1035,
      "è§Ĩ": 1036,
      "åıĭ": 1037,
      "çľŁ": 1038,
      "è¶ħ": 1039,
      "æĴ": 1040,
      "Ġsu": 1041,
      "ç«ĭ": 1042,
      "åħĪ": 1043,
      "åĳ¨": 1044,
      "è®°èĢħ": 1045,
      "åıĸ": 1046,
      "è´¨": 1047,
      "é¡¹çĽ®": 1048,
      "lo": 1049,
      "Ġab": 1050,
      "ice": 1051,
      "åĨľ": 1052,
      "ak": 1053,
      "per": 1054,
      "å·²ç»ı": 1055,
      "æ·±": 1056,
      "é©¬": 1057,
      "çĶ±": 1058,
      "Ġour": 1059,
      "æĶ¾": 1060,
      "åĨł": 1061,
      "åĳĬ": 1062,
      "åĽ¢": 1063,
      "æ¢": 1064,
      "è£ħ": 1065,
      "äº¬": 1066,
      "æĮĩ": 1067,
      "Ġnot": 1068,
      "ook": 1069,
      "çħ": 1070,
      "2017": 1071,
      "æ¯ı": 1072,
      "ç»Ł": 1073,
      "æĺ¾": 1074,
      "å¤į": 1075,
      "ä¼ģä¸ļ": 1076,
      "å¤ĩ": 1077,
      "ĠU": 1078,
      "Ġcomp": 1079,
      "Ġj": 1080,
      "ç»Ń": 1081,
      "ç²¾": 1082,
      "Ġk": 1083,
      "gh": 1084,
      "çİ©": 1085,
      "è®®": 1086,
      "ac": 1087,
      "æĸ½": 1088,
      "æĬķ": 1089,
      "å»ºè®¾": 1090,
      "è¿Ļä¸ª": 1091,
      "æĪ·": 1092,
      "åĨµ": 1093,
      "è´¹": 1094,
      "æļ": 1095,
      "æ¡Ī": 1096,
      "ï¿": 1097,
      "ĠIn": 1098,
      "ç§°": 1099,
      "éĿŀå¸¸": 1100,
      "ï¿½": 1101,
      "åĩĨ": 1102,
      "çİ¯": 1103,
      "ä¼ĺ": 1104,
      "able": 1105,
      "è±": 1106,
      "åĨį": 1107,
      "åıĺ": 1108,
      "Ġne": 1109,
      "æĶ¯": 1110,
      "ind": 1111,
      "åıĪ": 1112,
      "çĬ": 1113,
      "od": 1114,
      "æİ§": 1115,
      "è®¤": 1116,
      "è¯ģ": 1117,
      "ip": 1118,
      "å¨": 1119,
      "è§Ĥ": 1120,
      "te": 1121,
      "åĬ©": 1122,
      "ack": 1123,
      "æİĴ": 1124,
      "æĿ¡": 1125,
      "è´«": 1126,
      "ä¹ł": 1127,
      "éľĢ": 1128,
      "ä¹Łæĺ¯": 1129,
      "ff": 1130,
      "æķĪ": 1131,
      "are": 1132,
      "åŃ£": 1133,
      "ä¸ĸ": 1134,
      "è¯Ŀ": 1135,
      "'s": 1136,
      "ie": 1137,
      "èĤ¡": 1138,
      "åıĤ": 1139,
      "ry": 1140,
      "Ġad": 1141,
      "çłĶ": 1142,
      "æµİ": 1143,
      "äº¿": 1144,
      "åı·": 1145,
      "ated": 1146,
      "å¾Īå¤ļ": 1147,
      "çı": 1148,
      "é¾": 1149,
      "å¾·": 1150,
      "éĩĩ": 1151,
      "è¯ķ": 1152,
      "Ġdo": 1153,
      "ions": 1154,
      "å¿«": 1155,
      "è¾ĥ": 1156,
      "éļ¾": 1157,
      "åĨĽ": 1158,
      "åĩł": 1159,
      "ç¥ŀ": 1160,
      "ä½ı": 1161,
      "Ġ3": 1162,
      "èİ·": 1163,
      "pt": 1164,
      "æŃ¥": 1165,
      "ake": 1166,
      "è´£": 1167,
      "éĻĲ": 1168,
      "åĨ³": 1169,
      "ĠY": 1170,
      "æľ¯": 1171,
      "Ġen": 1172,
      "æ£Ģ": 1173,
      "å°Ķ": 1174,
      "èĲ¥": 1175,
      "å¤§å®¶": 1176,
      "å®¹": 1177,
      "èŃ": 1178,
      "æĳ": 1179,
      "æĢģ": 1180,
      "hen": 1181,
      "ite": 1182,
      "åĽ¾": 1183,
      "one": 1184,
      "è¿ŀ": 1185,
      "èŃ¦": 1186,
      "Ġup": 1187,
      "çº¢": 1188,
      "æľįåĬ¡": 1189,
      "éĢŁ": 1190,
      "éŁ": 1191,
      "çĭ": 1192,
      "éķĩ": 1193,
      "æĪĸ": 1194,
      "ç©¿": 1195,
      "du": 1196,
      "çĪ±": 1197,
      "çĥŃ": 1198,
      "éĹ®é¢ĺ": 1199,
      "åįĩ": 1200,
      "ä¸Ķ": 1201,
      "ç¬¬ä¸Ģ": 1202,
      "çĻ½": 1203,
      "åħī": 1204,
      "æĭī": 1205,
      "å§ĭ": 1206,
      "ail": 1207,
      "èģĮ": 1208,
      "æ¸ħ": 1209,
      "æ³¨": 1210,
      "æ²³": 1211,
      "ä½Ĩæĺ¯": 1212,
      "ä¾Ľ": 1213,
      "æĬĬ": 1214,
      "æĥħåĨµ": 1215,
      "cc": 1216,
      "è½¬": 1217,
      "ally": 1218,
      "very": 1219,
      "å®¢": 1220,
      "äººåĳĺ": 1221,
      "èĬ±": 1222,
      "iz": 1223,
      "æ¼Ķ": 1224,
      "åŃ¦çĶŁ": 1225,
      "å¸Ĥåľº": 1226,
      "ign": 1227,
      "éĺ³": 1228,
      "çħ§": 1229,
      "ä½¿": 1230,
      "æ®µ": 1231,
      "æ¨": 1232,
      "Ġout": 1233,
      "ood": 1234,
      "ä¸¾": 1235,
      "æĹħ": 1236,
      "åºľ": 1237,
      "çķĮ": 1238,
      "å¼ķ": 1239,
      "ost": 1240,
      "åĦ": 1241,
      "ould": 1242,
      "ĠK": 1243,
      "åĽłä¸º": 1244,
      "åĽ½å®¶": 1245,
      "ich": 1246,
      "Ġme": 1247,
      "çª": 1248,
      "åĢĻ": 1249,
      "æĬ¤": 1250,
      "èĲ½": 1251,
      "æīį": 1252,
      "og": 1253,
      "è¶Ĭ": 1254,
      "è´Ń": 1255,
      "æŀĹ": 1256,
      "ous": 1257,
      "ç«Ļ": 1258,
      "è§ģ": 1259,
      "å¤ª": 1260,
      "çº¦": 1261,
      "ong": 1262,
      "æ¹ĸ": 1263,
      "éĿĴ": 1264,
      "ĠWe": 1265,
      "èµ°": 1266,
      "äºĶ": 1267,
      "Ġcl": 1268,
      "ç±³": 1269,
      "åħ·": 1270,
      "ĠV": 1271,
      "æ´»åĬ¨": 1272,
      "orm": 1273,
      "åĦ¿": 1274,
      "ia": 1275,
      "Ġte": 1276,
      "Ġso": 1277,
      "Ġone": 1278,
      "æķĻèĤ²": 1279,
      "æĲŃ": 1280,
      "æľª": 1281,
      "åĪĴ": 1282,
      "âĢĶ": 1283,
      "è¶³": 1284,
      "æĿİ": 1285,
      "æĭĽ": 1286,
      "ime": 1287,
      "æĺŁ": 1288,
      "ä»½": 1289,
      "ç§¯": 1290,
      "Ġoff": 1291,
      "ç©º": 1292,
      "çĽ®åīį": 1293,
      "ĠSt": 1294,
      "é¥": 1295,
      "åĵį": 1296,
      "19": 1297,
      "ä¹Ĳ": 1298,
      "è¿ĺæĺ¯": 1299,
      "å¹²": 1300,
      "æĶ¿åºľ": 1301,
      "æŃ¦": 1302,
      "Ġ201": 1303,
      "å¢ĥ": 1304,
      "ber": 1305,
      "éļı": 1306,
      "åĬ¿": 1307,
      "ç»ıæµİ": 1308,
      "çİĩ": 1309,
      "èħ": 1310,
      "ore": 1311,
      "erv": 1312,
      "Ġbut": 1313,
      "èĮĥ": 1314,
      "ä»ĸä»¬": 1315,
      "ä½ķ": 1316,
      "åĮħ": 1317,
      "Ġman": 1318,
      "åĢ¼": 1319,
      "ç¾¤": 1320,
      "éĻħ": 1321,
      "çīĩ": 1322,
      "act": 1323,
      "Ġim": 1324,
      "åĽŃ": 1325,
      "Ġmy": 1326,
      "åħĭ": 1327,
      "ans": 1328,
      "ap": 1329,
      "Ġtheir": 1330,
      "ther": 1331,
      "è¡¨ç¤º": 1332,
      "é¢Ħ": 1333,
      "ance": 1334,
      "å½¢": 1335,
      "çĽĳ": 1336,
      "Ġnew": 1337,
      "åĪ°äºĨ": 1338,
      "åŁİå¸Ĥ": 1339,
      "ace": 1340,
      "ï¿½ï¿½": 1341,
      "ç®¡çĲĨ": 1342,
      "éĶĢ": 1343,
      "reat": 1344,
      "éĢļè¿ĩ": 1345,
      "ase": 1346,
      "æĴŃ": 1347,
      "Ġmore": 1348,
      "Ġqu": 1349,
      "ire": 1350,
      "Ġwork": 1351,
      "æĺĵ": 1352,
      "æĹ¶åĢĻ": 1353,
      "ç¦»": 1354,
      "ä¹°": 1355,
      "11": 1356,
      "ass": 1357,
      "ç±»": 1358,
      "ick": 1359,
      "åī¯": 1360,
      "ach": 1361,
      "äººæ°ĳ": 1362,
      "æ»¡": 1363,
      "..": 1364,
      "ä»ħ": 1365,
      "Ġyear": 1366,
      "Ġabout": 1367,
      "çīĮ": 1368,
      "ĠIt": 1369,
      "ree": 1370,
      "å£«": 1371,
      "è®¯": 1372,
      "æĪı": 1373,
      "æĺ¥": 1374,
      "ark": 1375,
      "cl": 1376,
      "ä»Ģ": 1377,
      "å®£": 1378,
      "åıĮ": 1379,
      "30": 1380,
      "å®īåħ¨": 1381,
      "12": 1382,
      "æł¹": 1383,
      "Ġcont": 1384,
      "çĮ": 1385,
      "é¾Ļ": 1386,
      "åĩ»": 1387,
      "åĭ": 1388,
      "èĩ´": 1389,
      "ĠCh": 1390,
      "ä»Ĭå¹´": 1391,
      "åıĳå¸ĥ": 1392,
      "æŁĲ": 1393,
      "ä¹¡": 1394,
      "çİ°åľ¨": 1395,
      "éĽĦ": 1396,
      "çļ®": 1397,
      "Ġun": 1398,
      "vel": 1399,
      "ub": 1400,
      "ä½İ": 1401,
      "æ¥": 1402,
      "å¼Ģå§ĭ": 1403,
      "ĠThis": 1404,
      "ib": 1405,
      "ult": 1406,
      "åįı": 1407,
      "çļĦä¸Ģ": 1408,
      "æ¯ĶèµĽ": 1409,
      "åį«": 1410,
      "æ¨¡": 1411,
      "Ġapp": 1412,
      "è§ī": 1413,
      "ä½ľä¸º": 1414,
      "å²ģ": 1415,
      "åį´": 1416,
      "å¡": 1417,
      "ary": 1418,
      "è®º": 1419,
      "æŀģ": 1420,
      "Ġsp": 1421,
      "äºĨä¸Ģ": 1422,
      "åıį": 1423,
      "Ġres": 1424,
      "ä»Ģä¹Ī": 1425,
      "æ¯Ĵ": 1426,
      "è¾¹": 1427,
      "ĠâĢľ": 1428,
      "und": 1429,
      "å±ħ": 1430,
      "äºļ": 1431,
      "ue": 1432,
      "âĢ¦": 1433,
      "åĶ®": 1434,
      "ction": 1435,
      "å¤§åŃ¦": 1436,
      "çĬ¶": 1437,
      "av": 1438,
      "ll": 1439,
      "åĿļ": 1440,
      "æħ": 1441,
      "ations": 1442,
      "ä¸Ńå¿ĥ": 1443,
      "ä¸¥": 1444,
      "çĻ¾": 1445,
      "own": 1446,
      "éªĮ": 1447,
      "so": 1448,
      "åİĨ": 1449,
      "form": 1450,
      "ç½®": 1451,
      "çĶ·": 1452,
      "ep": 1453,
      "ile": 1454,
      "ç¤¾ä¼ļ": 1455,
      "15": 1456,
      "çıŃ": 1457,
      "é»Ħ": 1458,
      "çģ«": 1459,
      "å®ĺ": 1460,
      "ç»ĩ": 1461,
      "ount": 1462,
      "ike": 1463,
      "è¿Ļæł·": 1464,
      "éĻį": 1465,
      "è®¾è®¡": 1466,
      "åĮĹäº¬": 1467,
      "Ġ-": 1468,
      "åħ¶ä¸Ń": 1469,
      "å¯¹äºİ": 1470,
      "æĪĲä¸º": 1471,
      "æ±½": 1472,
      "åħ¨åĽ½": 1473,
      "Ġper": 1474,
      "åī§": 1475,
      "ame": 1476,
      "åĲĮæĹ¶": 1477,
      "åŃ©": 1478,
      "æĻ¯": 1479,
      "åºķ": 1480,
      "è¦ģæ±Ĥ": 1481,
      "æŀĦ": 1482,
      "åį³": 1483,
      "ents": 1484,
      "æī¹": 1485,
      "è®¸": 1486,
      "æ±ī": 1487,
      "éĻ¤": 1488,
      "æĸ¹éĿ¢": 1489,
      "é»ĳ": 1490,
      "200": 1491,
      "ä¾Ŀ": 1492,
      "éĥ½æĺ¯": 1493,
      "ical": 1494,
      "Ġwhich": 1495,
      "ç»Ī": 1496,
      "å½±åĵį": 1497,
      "è¯Ħ": 1498,
      "äº§ä¸ļ": 1499,
      "ays": 1500,
      "çİ©å®¶": 1501,
      "ond": 1502,
      "Ġint": 1503,
      "çīĪ": 1504,
      "çºª": 1505,
      "åģ¥": 1506,
      "åĥ": 1507,
      "çļĦæĺ¯": 1508,
      "æĻ®": 1509,
      "æĹħæ¸¸": 1510,
      "åĬŁ": 1511,
      "ord": 1512,
      "è¡£": 1513,
      "çŃĸ": 1514,
      "ç¦ı": 1515,
      "Ġwho": 1516,
      "è¨": 1517,
      "Ġtra": 1518,
      "æľĽ": 1519,
      "Ġar": 1520,
      "Ġbeen": 1521,
      "Ġpr": 1522,
      "åįĬ": 1523,
      "ru": 1524,
      "å¿Ĺ": 1525,
      "åı¯èĥ½": 1526,
      "åħ»": 1527,
      "åŁŁ": 1528,
      "Ġtime": 1529,
      "è¨Ģ": 1530,
      "å¯Ł": 1531,
      "åŃ¦æł¡": 1532,
      "èĻ½": 1533,
      "å¥Ĺ": 1534,
      "æĸĩåĮĸ": 1535,
      "åģľ": 1536,
      "åį¡": 1537,
      "è¯¾": 1538,
      "åĪĿ": 1539,
      "The": 1540,
      "åĪĻ": 1541,
      "ç©¶": 1542,
      "Ġdes": 1543,
      "ings": 1544,
      "åº·": 1545,
      "æīĢä»¥": 1546,
      "åĸľ": 1547,
      "Ġpart": 1548,
      "ors": 1549,
      "Ġ4": 1550,
      "ĠâĢ": 1551,
      "ence": 1552,
      "äºĳ": 1553,
      "ä¹ĭåĲİ": 1554,
      "åĪĹ": 1555,
      "Ġthey": 1556,
      "ä¾¿": 1557,
      "æĿĥ": 1558,
      "æµĭ": 1559,
      "Ġget": 1560,
      "å¾®": 1561,
      "Ġro": 1562,
      "çĶŁæ´»": 1563,
      "åįļ": 1564,
      "åĽ°": 1565,
      "ç®Ĺ": 1566,
      "å¤Ł": 1567,
      "èĭ±éĽĦ": 1568,
      "ition": 1569,
      "ä¸įæĺ¯": 1570,
      "ç®Ģ": 1571,
      "ere": 1572,
      "ild": 1573,
      "éĩįè¦ģ": 1574,
      "50": 1575,
      "å®ģ": 1576,
      "åª": 1577,
      "å¼Ģå±ķ": 1578,
      "å¦Ĥæŀľ": 1579,
      "Ġgo": 1580,
      "ç½Ĺ": 1581,
      "è¯Ĩ": 1582,
      "ä¸įè¿ĩ": 1583,
      "Ġdis": 1584,
      "æĸŃ": 1585,
      "Ġkn": 1586,
      "åĽ´": 1587,
      "åĥı": 1588,
      "èŀ": 1589,
      "éĹ»": 1590,
      "Ġev": 1591,
      "å®ĥ": 1592,
      "å¾Ģ": 1593,
      "pl": 1594,
      "Ġsome": 1595,
      "Ġany": 1596,
      "ç¼ĸ": 1597,
      "Ġover": 1598,
      "ä¸ĸçķĮ": 1599,
      "Ġspe": 1600,
      "ç»Ħç»ĩ": 1601,
      "ress": 1602,
      "åĪĺ": 1603,
      "çĽ¸åħ³": 1604,
      "æ¸¸æĪı": 1605,
      "Ġåľ¨": 1606,
      "è±¡": 1607,
      "æĶ»": 1608,
      "éĢīæĭ": 1609,
      "åŃ¦ä¹ł": 1610,
      "Ġrec": 1611,
      "æĮī": 1612,
      "è´Ł": 1613,
      "æī¶": 1614,
      "çľ¼": 1615,
      "å®Ŀ": 1616,
      "è¯·": 1617,
      "æĹ©": 1618,
      "æ¸©": 1619,
      "2020": 1620,
      "æĸĻ": 1621,
      "Ġ\"": 1622,
      "é£Ł": 1623,
      "å©": 1624,
      "Ġfe": 1625,
      "æ¬¢": 1626,
      "âĢĿï¼Į": 1627,
      "èı": 1628,
      "18": 1629,
      "åŃĺ": 1630,
      "ä»¥åıĬ": 1631,
      "éĥ¨åĪĨ": 1632,
      "ä¹¦è®°": 1633,
      "port": 1634,
      "ish": 1635,
      "åħ°": 1636,
      "å·´": 1637,
      "æł¸": 1638,
      "å±Ĥ": 1639,
      "000": 1640,
      "mer": 1641,
      "Ġcol": 1642,
      "èĻ½çĦ¶": 1643,
      "Ġprov": 1644,
      "Ġsc": 1645,
      "å³": 1646,
      "èĳ": 1647,
      "åĿĩ": 1648,
      "ç¾İåĽ½": 1649,
      "ove": 1650,
      "åł": 1651,
      "ens": 1652,
      "èŀį": 1653,
      "ç»´": 1654,
      "Ġneed": 1655,
      "å±ŀ": 1656,
      "wn": 1657,
      "ä¹Ŀ": 1658,
      "çŁ³": 1659,
      "æĬĢæľ¯": 1660,
      "éĻ©": 1661,
      "çķĻ": 1662,
      "æĢĿ": 1663,
      "åŃĹ": 1664,
      "Ġother": 1665,
      "éĢīæĭ©": 1666,
      "ç´§": 1667,
      "éľĢè¦ģ": 1668,
      "æ¥¼": 1669,
      "vers": 1670,
      "day": 1671,
      "å¤§çļĦ": 1672,
      "äº¿åħĥ": 1673,
      "ä¼¤": 1674,
      "int": 1675,
      "èµ·æĿ¥": 1676,
      "ound": 1677,
      "åľŁ": 1678,
      "irst": 1679,
      "16": 1680,
      "å¤±": 1681,
      "çļĦæĹ¶åĢĻ": 1682,
      "ä¿¡æģ¯": 1683,
      "Ġalso": 1684,
      "æ±½è½¦": 1685,
      "èĥľ": 1686,
      "ä»ĭ": 1687,
      "æĿĲ": 1688,
      "çªģ": 1689,
      "äººçļĦ": 1690,
      "Ġhis": 1691,
      "Ġpre": 1692,
      "èĩªå·±çļĦ": 1693,
      "Ġserv": 1694,
      "è®²": 1695,
      "é²": 1696,
      "å·¥ç¨ĭ": 1697,
      "Ġacc": 1698,
      "14": 1699,
      "åı²": 1700,
      "æ¯Ķè¾ĥ": 1701,
      "ä½Ļ": 1702,
      "èīº": 1703,
      "åıĳçİ°": 1704,
      "åı¤": 1705,
      "æĭ¿": 1706,
      "åįĪ": 1707,
      "æĽ¾": 1708,
      "åªĴ": 1709,
      "ool": 1710,
      "äº²": 1711,
      "å®¤": 1712,
      "Ġits": 1713,
      "å¥¥": 1714,
      "ä¹ī": 1715,
      "çĤİ": 1716,
      "åĳ½": 1717,
      "å¿ħ": 1718,
      "Ġpe": 1719,
      "éĵ¶": 1720,
      "ink": 1721,
      "èĤ¤": 1722,
      "Ġwhen": 1723,
      "æī§": 1724,
      "å¸®": 1725,
      "éĥ¨éĹ¨": 1726,
      "çĶŁäº§": 1727,
      "Ġlike": 1728,
      "è®Ń": 1729,
      "ning": 1730,
      "å®³": 1731,
      "æ½": 1732,
      "è½»": 1733,
      "éĵģ": 1734,
      "éĢģ": 1735,
      "åĪĩ": 1736,
      "äºĨè§£": 1737,
      "Ġam": 1738,
      "æĸ°åĨł": 1739,
      "å¯Į": 1740,
      "éĻĪ": 1741,
      "æ¦": 1742,
      "è¿ľ": 1743,
      "ater": 1744,
      "ang": 1745,
      "ç»Ĩ": 1746,
      "Ġag": 1747,
      "æĿ¿": 1748,
      "æĬķèµĦ": 1749,
      "13": 1750,
      "ory": 1751,
      "ne": 1752,
      "cial": 1753,
      "lp": 1754,
      "æĻļ": 1755,
      "åŃ©åŃĲ": 1756,
      "èĤº": 1757,
      "old": 1758,
      "è¯Ĭ": 1759,
      "rough": 1760,
      "åĪļ": 1761,
      "è¿Ļä¸Ģ": 1762,
      "ä¸»è¦ģ": 1763,
      "æ²¹": 1764,
      "äºī": 1765,
      "17": 1766,
      "çłĶç©¶": 1767,
      "è¿ĻäºĽ": 1768,
      "æ¶Īæģ¯": 1769,
      "å®¡": 1770,
      "åºĨ": 1771,
      "èĢĮä¸Ķ": 1772,
      "åĩºçİ°": 1773,
      "è¿ĺæľī": 1774,
      "å¤®": 1775,
      "ä¿®": 1776,
      "ft": 1777,
      "æłĩé¢ĺ": 1778,
      "èį¯": 1779,
      "åħ´": 1780,
      "çŁ¥éģĵ": 1781,
      "æľīéĻĲ": 1782,
      "å½ķ": 1783,
      "çĸĹ": 1784,
      "åĩı": 1785,
      "ices": 1786,
      "tern": 1787,
      "Ġmost": 1788,
      "åĻ": 1789,
      "çł´": 1790,
      "clud": 1791,
      "èĪª": 1792,
      "åħħ": 1793,
      "ç¢": 1794,
      "Ġlook": 1795,
      "äº§åĵģ": 1796,
      "ram": 1797,
      "è´¢": 1798,
      "åĽ½éĻħ": 1799,
      "ä¼ļè®®": 1800,
      "ä¸ĢäºĽ": 1801,
      "ç§Ģ": 1802,
      "è¿İ": 1803,
      "éĺ¿": 1804,
      "Ġjust": 1805,
      "ä¸ĢçĽ´": 1806,
      "æł¹æį®": 1807,
      "åİŁæłĩé¢ĺ": 1808,
      "Ġhelp": 1809,
      "æĸ°éĹ»": 1810,
      "Ġthem": 1811,
      "çļĦäºº": 1812,
      "å·Ŀ": 1813,
      "ç»©": 1814,
      "åºĹ": 1815,
      "çİ¯å¢ĥ": 1816,
      "ä¸´": 1817,
      "Ġhow": 1818,
      "ä¸ĩåħĥ": 1819,
      "åĲ¯": 1820,
      "åĳ¢": 1821,
      "åįķä½į": 1822,
      "äº®": 1823,
      "Ġwhat": 1824,
      "è¡¥": 1825,
      "è§Ĵ": 1826,
      "Ġprodu": 1827,
      "ian": 1828,
      "çĽĬ": 1829,
      "æī¿": 1830,
      "èĴ": 1831,
      "å£°": 1832,
      "èĢģå¸Ī": 1833,
      "hed": 1834,
      "æķĳ": 1835,
      "ĠYou": 1836,
      "çĿ£": 1837,
      "ä»Ĭå¤©": 1838,
      "åĩºäºĨ": 1839,
      "æ¸¯": 1840,
      "æķ°æį®": 1841,
      "èĤºçĤİ": 1842,
      "ank": 1843,
      "ual": 1844,
      "éĢĤ": 1845,
      "24": 1846,
      "æĸ¹å¼ı": 1847,
      "å»¶": 1848,
      "ç¬¬äºĮ": 1849,
      "åº§": 1850,
      "Ġ19": 1851,
      "25": 1852,
      "ç»§": 1853,
      "çļ®èĤ¤": 1854,
      "Ġbu": 1855,
      "éĿ©": 1856,
      "ough": 1857,
      "éŃ": 1858,
      "çĨ": 1859,
      "Ġfirst": 1860,
      "ç¿": 1861,
      "Ġsa": 1862,
      "itt": 1863,
      "æ¯ķ": 1864,
      "è®¿": 1865,
      "ĠRe": 1866,
      "Ġthere": 1867,
      "æİ¨è¿Ľ": 1868,
      "--": 1869,
      "åĮ»éĻ¢": 1870,
      "éĶĻ": 1871,
      "çİ°åľº": 1872,
      "ely": 1873,
      "æıĲä¾Ľ": 1874,
      "ç»ĥ": 1875,
      "åı¬": 1876,
      "ĠWh": 1877,
      "é¢Ŀ": 1878,
      "ç¨³": 1879,
      "è¾ĵ": 1880,
      "å±Ĭ": 1881,
      "Ġtr": 1882,
      "Ġcomm": 1883,
      "æŁĵ": 1884,
      "åŁ¹": 1885,
      "ä»¥æĿ¥": 1886,
      "çĹħæ¯Ĵ": 1887,
      "ç½ĳåıĭ": 1888,
      "è·Ł": 1889,
      "é£ŀ": 1890,
      "ä»£è¡¨": 1891,
      "Ġinto": 1892,
      "åģĩ": 1893,
      "æĻº": 1894,
      "è¾Ĩ": 1895,
      "èĥ½å¤Ł": 1896,
      "ä¸½": 1897,
      "æ¬§": 1898,
      "çŁŃ": 1899,
      "èĵ": 1900,
      "åľ°åĮº": 1901,
      "éĽ¨": 1902,
      "äº«": 1903,
      "å¹³åı°": 1904,
      "æĿ¨": 1905,
      "Ġmake": 1906,
      "ç¾¤ä¼Ĺ": 1907,
      "åįĥ": 1908,
      "ä¸įå°ĳ": 1909,
      "Ġtw": 1910,
      "æĶ¿çŃĸ": 1911,
      "æĹı": 1912,
      "å®ŀçİ°": 1913,
      "èį£": 1914,
      "æĭħ": 1915,
      "åħį": 1916,
      "low": 1917,
      "éĤ£ä¹Ī": 1918,
      "ç§ĳæĬĢ": 1919,
      "lic": 1920,
      "here": 1921,
      "ful": 1922,
      "å¾ħ": 1923,
      "å¥ĸ": 1924,
      "Ġ5": 1925,
      "éĴ±": 1926,
      "åĻ¨": 1927,
      "Ġinclud": 1928,
      "éľ²": 1929,
      "ious": 1930,
      "ç²ī": 1931,
      "ä¸ŃçļĦ": 1932,
      "Ġph": 1933,
      "ade": 1934,
      "lect": 1935,
      "Ġexper": 1936,
      "èĭı": 1937,
      "å®ĮæĪĲ": 1938,
      "round": 1939,
      "é¸": 1940,
      "åĲĥ": 1941,
      "ople": 1942,
      "æķħ": 1943,
      "iness": 1944,
      "æĢ¥": 1945,
      "çĸĳ": 1946,
      "å¥½çļĦ": 1947,
      "%ï¼Į": 1948,
      "å¸Ń": 1949,
      "è¡Ĺ": 1950,
      "åĺ": 1951,
      "ates": 1952,
      "ä½¿çĶ¨": 1953,
      "fter": 1954,
      "Ġind": 1955,
      "Ġ&": 1956,
      "åħ¨éĿ¢": 1957,
      "å¼ĢåŃ¦": 1958,
      "ç»į": 1959,
      "ä¸ĵä¸ļ": 1960,
      "çĪĨ": 1961,
      "æĬĢèĥ½": 1962,
      "æ¶¨": 1963,
      "é¢ĳ": 1964,
      "ä¸Ŀ": 1965,
      "ç»¿": 1966,
      "ces": 1967,
      "æ³¢": 1968,
      "Ġadd": 1969,
      "å¥ĩ": 1970,
      "ĠâĢĵ": 1971,
      "çĶ°": 1972,
      "Ġif": 1973,
      "éĩįçĤ¹": 1974,
      "ç»¼": 1975,
      "Ġher": 1976,
      "Ġco": 1977,
      "è´£ä»»": 1978,
      "Ġdesign": 1979,
      "èĦ±": 1980,
      "ä¸ĢæŃ¥": 1981,
      "æĺ¯ä¸Ģ": 1982,
      "è¿Ľåħ¥": 1983,
      "å¸Į": 1984,
      "è´µ": 1985,
      "æĿ¥è¯´": 1986,
      "åİħ": 1987,
      "åıĤåĬł": 1988,
      "iew": 1989,
      "çľĭåĪ°": 1990,
      "æľīéĻĲåħ¬åı¸": 1991,
      "ons": 1992,
      "ä¸ªäºº": 1993,
      "è¯Ń": 1994,
      "ek": 1995,
      "æį¢": 1996,
      "Ġthrough": 1997,
      "çĻ»": 1998,
      "å°½": 1999,
      "èĥ½åĬĽ": 2000,
      "æİª": 2001,
      "Ġbus": 2002,
      "ph": 2003,
      "Ġuse": 2004,
      "Ġknow": 2005,
      "åĸĦ": 2006,
      "åİĭ": 2007,
      "Ġevery": 2008,
      "èµĽåŃ£": 2009,
      "è½®": 2010,
      "les": 2011,
      "ures": 2012,
      "ç³»ç»Ł": 2013,
      "è®¡åĪĴ": 2014,
      "åħ¶ä»ĸ": 2015,
      "com": 2016,
      "æĬ¥éģĵ": 2017,
      "ĠHe": 2018,
      "ov": 2019,
      "ments": 2020,
      "çº³": 2021,
      "é¦Ļ": 2022,
      "éŁ©": 2023,
      "oy": 2024,
      "ose": 2025,
      "ict": 2026,
      "å°ļ": 2027,
      "è¿Ŀ": 2028,
      "å¾ĭ": 2029,
      "bs": 2030,
      "æıĲåįĩ": 2031,
      "åĲĪä½ľ": 2032,
      "åħ¶å®ŀ": 2033,
      "ä¸ºäºĨ": 2034,
      "æĬĵ": 2035,
      "çĽĺ": 2036,
      "å¢ŀéķ¿": 2037,
      "ating": 2038,
      "æŃ¦æ±ī": 2039,
      "æŃ»": 2040,
      "äºĴ": 2041,
      "æĲŃéħį": 2042,
      "åħ³äºİ": 2043,
      "iff": 2044,
      "è¿ĳæĹ¥": 2045,
      "ç¯": 2046,
      "Ġwere": 2047,
      "åĪĽæĸ°": 2048,
      "å¹´çļĦ": 2049,
      "éĩİ": 2050,
      "åį°": 2051,
      "Ġpeople": 2052,
      "çº·": 2053,
      "ject": 2054,
      "åħ«": 2055,
      "we": 2056,
      "Ġyears": 2057,
      "æĵ": 2058,
      "Ġhad": 2059,
      "row": 2060,
      "ä»ĭç»į": 2061,
      "æ¢¦": 2062,
      "ced": 2063,
      "éģĩ": 2064,
      "æĿ¾": 2065,
      "Ġno": 2066,
      "ities": 2067,
      "ont": 2068,
      "ç´ł": 2069,
      "åħŃ": 2070,
      "éĴŁ": 2071,
      "éĽĨåĽ¢": 2072,
      "çĵ": 2073,
      "any": 2074,
      "åĲ¬": 2075,
      "äº¤éĢļ": 2076,
      "åħ³æ³¨": 2077,
      "ĠAs": 2078,
      "use": 2079,
      "æī¶è´«": 2080,
      "åıĳçĶŁ": 2081,
      "Ġthan": 2082,
      "çī¹åĪ«": 2083,
      "çĳ": 2084,
      "ç»ľ": 2085,
      "Ġloc": 2086,
      "ily": 2087,
      "ork": 2088,
      "Ġbest": 2089,
      "Ġund": 2090,
      "åģ¥åº·": 2091,
      "è¡Įä¸ļ": 2092,
      "é¢Ĩå¯¼": 2093,
      "æĤī": 2094,
      "å·®": 2095,
      "ng": 2096,
      "pport": 2097,
      "Ġ7": 2098,
      "Ġwould": 2099,
      "åŁºæľ¬": 2100,
      "æ²Ļ": 2101,
      "éĺ²æİ§": 2102,
      "æľŁéĹ´": 2103,
      "ä¼¼": 2104,
      "amp": 2105,
      "ä¸ĬçļĦ": 2106,
      "Ġ8": 2107,
      "ange": 2108,
      "ä¸°": 2109,
      "æĪª": 2110,
      "21": 2111,
      "å¿µ": 2112,
      "éļľ": 2113,
      "æĢİ": 2114,
      "Ġmany": 2115,
      "ise": 2116,
      "ä»·æł¼": 2117,
      "æĦ¿": 2118,
      "åįĸ": 2119,
      "ç§Ł": 2120,
      "æľºæŀĦ": 2121,
      "Ġ6": 2122,
      "Ġwell": 2123,
      "æĭį": 2124,
      "æĿ¥çļĦ": 2125,
      "æŃ¢": 2126,
      "Ġ10": 2127,
      "Ġback": 2128,
      "çĭ¬": 2129,
      "ç«Ł": 2130,
      "åªĴä½ĵ": 2131,
      "ife": 2132,
      "æı´": 2133,
      "èİ·å¾Ĺ": 2134,
      "åįł": 2135,
      "ä¸Ĭæµ·": 2136,
      "Ġonly": 2137,
      "23": 2138,
      "Ġra": 2139,
      "Ġem": 2140,
      "çŃ¾": 2141,
      "oth": 2142,
      "åĲ§": 2143,
      "ts": 2144,
      "æīĢæľī": 2145,
      "æĬĹ": 2146,
      "ĠCom": 2147,
      "Ġhome": 2148,
      "Ġwant": 2149,
      "ased": 2150,
      "å®ŀæĸ½": 2151,
      "ational": 2152,
      "è£Ļ": 2153,
      "è¡Ģ": 2154,
      "æŃ£åľ¨": 2155,
      "ĠIf": 2156,
      "iss": 2157,
      "ç²¾ç¥ŀ": 2158,
      "åºŃ": 2159,
      "Ġstud": 2160,
      "å¹ħ": 2161,
      "è°¢": 2162,
      "å¹²éĥ¨": 2163,
      "çĹħä¾ĭ": 2164,
      "ãĢĤâĢĿ": 2165,
      "è°Ī": 2166,
      "ĠUn": 2167,
      "ç»Ŀ": 2168,
      "å·ŀå¸Ĥ": 2169,
      "åĵģçīĮ": 2170,
      "Ġæį®": 2171,
      "ç«ŀ": 2172,
      "èµĦæºĲ": 2173,
      "Ġhigh": 2174,
      "åľĪ": 2175,
      "ä¸įä»ħ": 2176,
      ").": 2177,
      "åĵª": 2178,
      "æī¾": 2179,
      "2019": 2180,
      "è¯»": 2181,
      "çĶ³": 2182,
      "æĳĦ": 2183,
      "als": 2184,
      "xt": 2185,
      "è¯ī": 2186,
      "Ġgreat": 2187,
      "22": 2188,
      "Ġtwo": 2189,
      "åĽ½åĨħ": 2190,
      "Ġfind": 2191,
      "ä¸Ģèµ·": 2192,
      "é¹": 2193,
      "ĠPro": 2194,
      "ç½ĳç»ľ": 2195,
      "ä¸įåĲĮ": 2196,
      "èĹ": 2197,
      "Ġreg": 2198,
      "åĨħå®¹": 2199,
      "è´§": 2200,
      "éĺµ": 2201,
      "æŃ£å¼ı": 2202,
      "èī²çļĦ": 2203,
      "Ġbec": 2204,
      "Ġunder": 2205,
      "èĲ½å®ŀ": 2206,
      "air": 2207,
      "çķ¥": 2208,
      "ä»¤": 2209,
      "è½¦åŀĭ": 2210,
      "Ġsm": 2211,
      "æ¿": 2212,
      "æĶ¹éĿ©": 2213,
      "éŁ³": 2214,
      "åħ¸": 2215,
      "è¿Ļæĺ¯": 2216,
      "åĲ¸": 2217,
      "Ġbet": 2218,
      "å¼Ģåıĳ": 2219,
      "ract": 2220,
      "ience": 2221,
      "éĢĢ": 2222,
      "Ġact": 2223,
      "å¯Ĩ": 2224,
      "æ¯į": 2225,
      "28": 2226,
      "Ġï¼Ī": 2227,
      "æĮ¥": 2228,
      "å¤«": 2229,
      "ific": 2230,
      "olog": 2231,
      "ç¥¨": 2232,
      "yst": 2233,
      "è´Łè´£": 2234,
      "ä¸įä¼ļ": 2235,
      "40": 2236,
      "Ġmay": 2237,
      "å½©": 2238,
      "Ġent": 2239,
      "åı¦": 2240,
      "ä¸Ńå¤®": 2241,
      "è¿Ľä¸ĢæŃ¥": 2242,
      "Ġcons": 2243,
      "ting": 2244,
      "éħĴ": 2245,
      "26": 2246,
      "çĽ´æİ¥": 2247,
      "Ġbusiness": 2248,
      "æ¶Īè´¹": 2249,
      "velop": 2250,
      "ä¹ĭåīį": 2251,
      "urn": 2252,
      "ath": 2253,
      "Ġvery": 2254,
      "æĬ¥åĳĬ": 2255,
      "å¦Ī": 2256,
      "åı¬å¼Ģ": 2257,
      "Ġstart": 2258,
      "åĵĪ": 2259,
      "ics": 2260,
      "âĢĿãĢĤ": 2261,
      "ĠSe": 2262,
      "åħ¨çĲĥ": 2263,
      "Ġnow": 2264,
      "åĲī": 2265,
      "åĲĹ": 2266,
      "å¸ĮæľĽ": 2267,
      "aw": 2268,
      "ä¸Ģå®ļ": 2269,
      "è·Į": 2270,
      "èģļ": 2271,
      "æĤ£": 2272,
      "å³°": 2273,
      "æĽ´åĬł": 2274,
      "ç§»": 2275,
      "èī¯": 2276,
      "æĭ¬": 2277,
      "Ġcar": 2278,
      "éĽ·": 2279,
      "çļĦå¤§": 2280,
      "å«": 2281,
      "ç¡Ģ": 2282,
      "åŁºç¡Ģ": 2283,
      "åħ¬å®ī": 2284,
      "å®£ä¼ł": 2285,
      "è¿½": 2286,
      "get": 2287,
      "åĿĹ": 2288,
      "è¿Ļç§į": 2289,
      "åĲ¦": 2290,
      "ç»¼åĲĪ": 2291,
      "Ġthese": 2292,
      "é©¾": 2293,
      "ç§¯æŀģ": 2294,
      "æ´²": 2295,
      "io": 2296,
      "æľĭ": 2297,
      "Ġinv": 2298,
      "ble": 2299,
      "çĶŁæĢģ": 2300,
      "èĶ": 2301,
      "é¡º": 2302,
      "è®¤ä¸º": 2303,
      "çĶ»": 2304,
      "Ġdiff": 2305,
      "æĭ¥": 2306,
      "çĶ±äºİ": 2307,
      "Ġfin": 2308,
      "line": 2309,
      "å°¼": 2310,
      "27": 2311,
      "å®Ī": 2312,
      "å¤ı": 2313,
      "ä¸įæĸŃ": 2314,
      "éļıçĿĢ": 2315,
      "Ġ9": 2316,
      "ert": 2317,
      "ç«¯": 2318,
      "æīĺ": 2319,
      "è¿ª": 2320,
      "âĢķ": 2321,
      "é¥°": 2322,
      "Ġav": 2323,
      "åĳ³": 2324,
      "chool": 2325,
      "ç¡®è¯Ĭ": 2326,
      "ä»ĺ": 2327,
      "è´«åĽ°": 2328,
      "åĬłå¼º": 2329,
      "%ãĢĤ": 2330,
      "uring": 2331,
      "æĿ¥æºĲ": 2332,
      "Ġrel": 2333,
      "der": 2334,
      "ĠDe": 2335,
      "çĶļ": 2336,
      "hes": 2337,
      "å¦Ĥä½ķ": 2338,
      "å¨ģ": 2339,
      "'t": 2340,
      "ty": 2341,
      "å¹ķ": 2342,
      "ular": 2343,
      "Ġfam": 2344,
      "ä»ĸçļĦ": 2345,
      "æļ´": 2346,
      "ible": 2347,
      "100": 2348,
      "åĪ»": 2349,
      "æłĩåĩĨ": 2350,
      "åĮħæĭ¬": 2351,
      "ĠSh": 2352,
      "Ġac": 2353,
      "å¢ŀåĬł": 2354,
      "æĸ°åĨłèĤºçĤİ": 2355,
      "ob": 2356,
      "Ġset": 2357,
      "åİĨåı²": 2358,
      "ä¹ħ": 2359,
      "erson": 2360,
      "èµĦéĩĳ": 2361,
      "æ¶ī": 2362,
      "aking": 2363,
      "åĤ": 2364,
      "Ġinform": 2365,
      "ä¸įèĥ½": 2366,
      "æ¿Ģ": 2367,
      "Ġday": 2368,
      "èĥĮ": 2369,
      "Ġown": 2370,
      "ä¿Ŀéļľ": 2371,
      "ä¸¤ä¸ª": 2372,
      "ä¹İ": 2373,
      "arch": 2374,
      "ä¸Ģæł·": 2375,
      "ä¿ĿæĬ¤": 2376,
      "èĦ¸": 2377,
      "ility": 2378,
      "æĺ¾ç¤º": 2379,
      "Ġhere": 2380,
      "Ġke": 2381,
      "Ġins": 2382,
      "æľ¨": 2383,
      "è¿·": 2384,
      "æŃĮ": 2385,
      "é¢ľ": 2386,
      "å·¦": 2387,
      "è¿Ļæł·çļĦ": 2388,
      "è·ĳ": 2389,
      "cess": 2390,
      "Ġimp": 2391,
      "èģĮä¸ļ": 2392,
      "èĸ": 2393,
      "åĮ»çĸĹ": 2394,
      "è´·": 2395,
      "æľĢè¿ĳ": 2396,
      "chn": 2397,
      "æĹĹ": 2398,
      "çīĽ": 2399,
      "gan": 2400,
      "lease": 2401,
      "éĶĢåĶ®": 2402,
      "ä¸»ä»»": 2403,
      "æĿĢ": 2404,
      "Ġbel": 2405,
      "æĶ¯æĮģ": 2406,
      "ash": 2407,
      "æ¤": 2408,
      "Â·": 2409,
      "Ġgu": 2410,
      "ç´¢": 2411,
      "åı³": 2412,
      "æ´¾": 2413,
      "Ġgood": 2414,
      "éĴĪ": 2415,
      "ull": 2416,
      "ality": 2417,
      "Ġshow": 2418,
      "ä¿ĥ": 2419,
      "æľĭåıĭ": 2420,
      "æĮīçħ§": 2421,
      "ystem": 2422,
      "Ġbr": 2423,
      "ited": 2424,
      "åİĤ": 2425,
      "ä¸¾è¡Į": 2426,
      "sh": 2427,
      "åĸľæ¬¢": 2428,
      "åħµ": 2429,
      "åį«çĶŁ": 2430,
      "æ°¸": 2431,
      "é¦Ĩ": 2432,
      "åįģåĪĨ": 2433,
      "Ġproduct": 2434,
      "ä»į": 2435,
      "çĲĥåĳĺ": 2436,
      "é½": 2437,
      "Ġcre": 2438,
      "rit": 2439,
      "60": 2440,
      "arket": 2441,
      "Ġinst": 2442,
      "å¦Ĥä»Ĭ": 2443,
      "Ġafter": 2444,
      "æıĲé«ĺ": 2445,
      "æĢİä¹Ī": 2446,
      "ä¼ĳ": 2447,
      "ale": 2448,
      "éĢļçŁ¥": 2449,
      "çĶļèĩ³": 2450,
      "Ġart": 2451,
      "éļĶ": 2452,
      "ç»§ç»Ń": 2453,
      "Ġway": 2454,
      "ä½³": 2455,
      "Ġworld": 2456,
      "Ġprovid": 2457,
      "Ġshe": 2458,
      "é¡¶": 2459,
      "çĽŁ": 2460,
      "è½½": 2461,
      "alth": 2462,
      "åĪĨåĪ«": 2463,
      "ix": 2464,
      "eth": 2465,
      "æ´¥": 2466,
      "åŃ¦éĻ¢": 2467,
      "æĸ°çļĦ": 2468,
      "å¾ģ": 2469,
      "ren": 2470,
      "ç«ł": 2471,
      "Ġsee": 2472,
      "Ġfl": 2473,
      "ustom": 2474,
      "èĵĿ": 2475,
      "æľĢåĲİ": 2476,
      "éĻĨ": 2477,
      "Ġplay": 2478,
      "åħ¬å¼Ģ": 2479,
      "ĠFor": 2480,
      "ç´¯": 2481,
      "ied": 2482,
      "oss": 2483,
      "nds": 2484,
      "ys": 2485,
      "åŃĺåľ¨": 2486,
      "æĪĲåĬŁ": 2487,
      "æ£ĢæŁ¥": 2488,
      "ward": 2489,
      "Ġwhere": 2490,
      "éº": 2491,
      "ĠCl": 2492,
      "ause": 2493,
      "Ġdec": 2494,
      "ä¼Ĭ": 2495,
      "ĠNew": 2496,
      "its": 2497,
      "è±ª": 2498,
      "è§ĦåĪĴ": 2499,
      "æİªæĸ½": 2500,
      "erm": 2501,
      "åħ¬åĳĬ": 2502,
      "æĪĲç»©": 2503,
      "æĿ¥çľĭ": 2504,
      "åĨ²": 2505,
      "Ġdown": 2506,
      "land": 2507,
      "æĹ§": 2508,
      "Ġsec": 2509,
      "åºı": 2510,
      "ax": 2511,
      "ative": 2512,
      "åĨĻ": 2513,
      "é½Ĳ": 2514,
      "æĮģç»Ń": 2515,
      "å°¤": 2516,
      "pr": 2517,
      "å©ļ": 2518,
      "éĵ¶è¡Į": 2519,
      "åºĶè¯¥": 2520,
      "ven": 2521,
      "é¼": 2522,
      "æľīåħ³": 2523,
      "az": 2524,
      "æĥł": 2525,
      "è§Ħå®ļ": 2526,
      "åľ°æĸ¹": 2527,
      "èĪ¬": 2528,
      "Ġrem": 2529,
      "fore": 2530,
      "âĢ¦âĢ¦": 2531,
      "è¡¨çİ°": 2532,
      "uch": 2533,
      "Ġdevelop": 2534,
      "Ġread": 2535,
      "éĻ¤äºĨ": 2536,
      "ä¸ĥ": 2537,
      "åĢŁ": 2538,
      "çģ¾": 2539,
      "èĦ±è´«": 2540,
      "è´¨éĩı": 2541,
      "åĵ¥": 2542,
      "Ġinc": 2543,
      "æ¾": 2544,
      "ock": 2545,
      "Ġvis": 2546,
      "Ġmon": 2547,
      "ĠAl": 2548,
      "è¿ĲåĬ¨": 2549,
      "èĹı": 2550,
      "çĽ´æĴŃ": 2551,
      "ç³»åĪĹ": 2552,
      "ient": 2553,
      "å·¨": 2554,
      "è¡ĮåĬ¨": 2555,
      "oint": 2556,
      "pect": 2557,
      "ç¤¾åĮº": 2558,
      "ident": 2559,
      "è¶ħè¿ĩ": 2560,
      "cy": 2561,
      "Ġass": 2562,
      "29": 2563,
      "ner": 2564,
      "ä¸Ģæ¬¡": 2565,
      "åĲ´": 2566,
      "ĠAnd": 2567,
      "ç¨İ": 2568,
      "æīĭæľº": 2569,
      "åŃĻ": 2570,
      "Ġche": 2571,
      "Ġmade": 2572,
      "è¿Ķ": 2573,
      "åģļå¥½": 2574,
      "ĠBe": 2575,
      "âĢĶâĢĶ": 2576,
      "ric": 2577,
      "ouse": 2578,
      "Ġright": 2579,
      "è®©äºº": 2580,
      "Ġbl": 2581,
      "åºĵ": 2582,
      "éĢĲ": 2583,
      "æĿ¥äºĨ": 2584,
      "Ġinformation": 2585,
      "çĲĥéĺŁ": 2586,
      "å²Ľ": 2587,
      "elf": 2588,
      "ĠAn": 2589,
      "pen": 2590,
      "å½ĵåľ°": 2591,
      "æĶ¶åħ¥": 2592,
      "Ġmin": 2593,
      "Ġpost": 2594,
      "oun": 2595,
      "æĿ¥èĩª": 2596,
      "ĠåİŁæłĩé¢ĺ": 2597,
      "Ġused": 2598,
      "æĿŁ": 2599,
      "ower": 2600,
      "åİ»å¹´": 2601,
      "å¡Ķ": 2602,
      "å°Ħ": 2603,
      "è¿Ļæ¬¡": 2604,
      "è§Ĩé¢ĳ": 2605,
      "æķĪæŀľ": 2606,
      "çŃĳ": 2607,
      "Ġ0": 2608,
      "èĪŀ": 2609,
      "åİŁåĽł": 2610,
      "æ¨¡å¼ı": 2611,
      "Ġlong": 2612,
      "ving": 2613,
      "è·Ŀ": 2614,
      "gram": 2615,
      "å¤ļçļĦ": 2616,
      "åįģä¹Ŀ": 2617,
      "é²ģ": 2618,
      "Ġavail": 2619,
      "éĢłåŀĭ": 2620,
      "Ġweek": 2621,
      "è¿Ļæ¬¾": 2622,
      "ener": 2623,
      "ĠFr": 2624,
      "æ¹ĸåĮĹ": 2625,
      "ç¬¬ä¸ī": 2626,
      "èĢĥè¯ķ": 2627,
      "±ä¹Ĳ": 2628,
      "å¹´æĿ¥": 2629,
      "¤Ĳ": 2630,
      "æ¹¾": 2631,
      "alk": 2632,
      "ages": 2633,
      "æīĵéĢł": 2634,
      "ãĢĭï¼Į": 2635,
      "éĺ¶": 2636,
      "arm": 2637,
      "åĨľä¸ļ": 2638,
      "Ġeas": 2639,
      "80": 2640,
      "åį±": 2641,
      "Ġsur": 2642,
      "æŃ¤æ¬¡": 2643,
      "åĪ¤": 2644,
      "æĦŁè§ī": 2645,
      "è£¤": 2646,
      "ĠAr": 2647,
      "ï¿½ï¿½ï¿½ï¿½": 2648,
      "Ġcur": 2649,
      "ä»¥ä¸Ĭ": 2650,
      "åĩĨå¤ĩ": 2651,
      "ug": 2652,
      "ï¼ļâĢľ": 2653,
      "éĿ¢ç§¯": 2654,
      "olut": 2655,
      "ä¸Ģä¸ĭ": 2656,
      "ç½©": 2657,
      "æ¡¥": 2658,
      "Ġeven": 2659,
      "åħ¬å¸ĥ": 2660,
      "æĵį": 2661,
      "çļĦå°ı": 2662,
      "åĨľæĿĳ": 2663,
      "æĪĲäºĨ": 2664,
      "é¤Ĳ": 2665,
      "ç¤¼": 2666,
      "Ġrequ": 2667,
      "äº¤æĺĵ": 2668,
      "ional": 2669,
      "de": 2670,
      "ä¹ĭä¸Ģ": 2671,
      "Ġtake": 2672,
      "ç¦ģ": 2673,
      "Ġeff": 2674,
      "Ġinte": 2675,
      "å½Ĵ": 2676,
      "Ġpres": 2677,
      "é¡»": 2678,
      "åĽĽå·Ŀ": 2679,
      "ç½²": 2680,
      "è¾¾åĪ°": 2681,
      "æĿ¡ä»¶": 2682,
      "Ġatt": 2683,
      "å±±ä¸ľ": 2684,
      "åıªæľī": 2685,
      "let": 2686,
      "å®¶åºŃ": 2687,
      "Ġsk": 2688,
      "æİ¥åıĹ": 2689,
      "å§Ĳ": 2690,
      "Ġlast": 2691,
      "è¸": 2692,
      "èģĶç³»": 2693,
      "ss": 2694,
      "),": 2695,
      "ä¸ļåĬ¡": 2696,
      "éĿł": 2697,
      "Ġcall": 2698,
      "éĢı": 2699,
      "ä½ĵèĤ²": 2700,
      "éĽħ": 2701,
      "æĻĵ": 2702,
      "åľ°äº§": 2703,
      "å¹¶ä¸Ķ": 2704,
      "çģ¯": 2705,
      "å´": 2706,
      "èĢĢ": 2707,
      "èµµ": 2708,
      "Ġcustom": 2709,
      "Ġ.": 2710,
      "æ£®": 2711,
      "ç¼º": 2712,
      "èĩªçĦ¶": 2713,
      "æĭ¥æľī": 2714,
      "çĽĸ": 2715,
      "çĽ®æłĩ": 2716,
      "Ġdiffere": 2717,
      "è°ģ": 2718,
      "è§īå¾Ĺ": 2719,
      "éĩĳèŀį": 2720,
      "æĬ¢": 2721,
      "èģĶåĲĪ": 2722,
      "Ġlife": 2723,
      "2016": 2724,
      "ä¼ĺåĬ¿": 2725,
      "å°ģ": 2726,
      "åĲĮæ¯Ķ": 2727,
      "Ġlist": 2728,
      "ivers": 2729,
      "å¸®åĬ©": 2730,
      "åħ¨çľģ": 2731,
      "ç§ĭ": 2732,
      "Ġperson": 2733,
      "æĪĸèĢħ": 2734,
      "Ġprof": 2735,
      "Ġfree": 2736,
      "Th": 2737,
      "åĨ³å®ļ": 2738,
      "ize": 2739,
      "éĩĩè´Ń": 2740,
      "æĸ¹æ¡Ī": 2741,
      "ä¸ĵå®¶": 2742,
      "ince": 2743,
      "åŁ¹è®Ń": 2744,
      "atch": 2745,
      "ï¼īï¼Į": 2746,
      "ues": 2747,
      "åĽłæŃ¤": 2748,
      "çĨŁ": 2749,
      "Ġmem": 2750,
      "å¤ľ": 2751,
      "ä¹Łæľī": 2752,
      "é©¶": 2753,
      "Ġform": 2754,
      "Ġ$": 2755,
      "åĩĢ": 2756,
      "æİ¢": 2757,
      "å¹¸": 2758,
      "ç¬ĳ": 2759,
      "èĲ¨": 2760,
      "co": 2761,
      "æ°´å¹³": 2762,
      "Ġä¸Ģ": 2763,
      "æĢĢ": 2764,
      "åıĸå¾Ĺ": 2765,
      "Ġlove": 2766,
      "ets": 2767,
      "ãĥ": 2768,
      "Ġsim": 2769,
      "ç£": 2770,
      "éĢīæīĭ": 2771,
      "è´¯": 2772,
      "çľŁçļĦ": 2773,
      "èıľ": 2774,
      "æ³°": 2775,
      "åĳ¼": 2776,
      "ines": 2777,
      "çĪ¶": 2778,
      "unity": 2779,
      "arn": 2780,
      "æľªæĿ¥": 2781,
      "Ġfeat": 2782,
      "aut": 2783,
      "Ġbo": 2784,
      "ä»ª": 2785,
      "ç»ıèĲ¥": 2786,
      "æľĹ": 2787,
      "Ġæľ¬": 2788,
      "Ġthen": 2789,
      "åħ·æľī": 2790,
      "åħ¨å¸Ĥ": 2791,
      "çĸ«æĥħéĺ²æİ§": 2792,
      "Ġavailable": 2793,
      "ok": 2794,
      "åĩºçļĦ": 2795,
      "Ġ200": 2796,
      "Ġteam": 2797,
      "åºĦ": 2798,
      "éĽ¶": 2799,
      "èĽ": 2800,
      "åı£ç½©": 2801,
      "iqu": 2802,
      "èĴĻ": 2803,
      "çĶ²": 2804,
      "Ġgra": 2805,
      "æĸĹ": 2806,
      "è¿Ļä¹Ī": 2807,
      "Ġsystem": 2808,
      "ple": 2809,
      "æĺĮ": 2810,
      "ä¸Ĭå¸Ĥ": 2811,
      "ä¼´": 2812,
      "æľĢç»Ī": 2813,
      "rib": 2814,
      "åĨłåĨĽ": 2815,
      "Ġmuch": 2816,
      "Ġtop": 2817,
      "ç»ĵæŀľ": 2818,
      "ave": 2819,
      "ç²īä¸Ŀ": 2820,
      "Ġtechn": 2821,
      "Ġed": 2822,
      "çİī": 2823,
      "ä¼Ł": 2824,
      "è°ĥæķ´": 2825,
      "åĪ¸": 2826,
      "å®ŀéĻħ": 2827,
      "Ġnum": 2828,
      "æĦŁæŁĵ": 2829,
      "è¿ĻéĩĮ": 2830,
      "åĬŀåħ¬": 2831,
      "Ġser": 2832,
      "Ġmed": 2833,
      "æłĳ": 2834,
      "ik": 2835,
      "ä»»åĬ¡": 2836,
      "è¿°": 2837,
      "åħ¬éĩĮ": 2838,
      "å§Ķåĳĺ": 2839,
      "æĽ´æĺ¯": 2840,
      "è¿Ľè¡ĮäºĨ": 2841,
      "Ġplace": 2842,
      "æ¯Ľ": 2843,
      "Ġtrans": 2844,
      "way": 2845,
      "å¼Ĥ": 2846,
      "å¸Ĥå§Ķ": 2847,
      "Ġdel": 2848,
      "éĩĩçĶ¨": 2849,
      "ï¼ĮâĢľ": 2850,
      "irect": 2851,
      "ç½ª": 2852,
      "åłĤ": 2853,
      "çĬ¶æĢģ": 2854,
      "å®£å¸ĥ": 2855,
      "ollow": 2856,
      "æľĢé«ĺ": 2857,
      "ä¸ĬåįĪ": 2858,
      "iet": 2859,
      "èĬĤçĽ®": 2860,
      "ç»ĵæĿŁ": 2861,
      "æĮĳ": 2862,
      "Ġdon": 2863,
      "ier": 2864,
      "Ġexp": 2865,
      "Ġaround": 2866,
      "å®ĺæĸ¹": 2867,
      "åĬª": 2868,
      "ĠAd": 2869,
      "90": 2870,
      "ason": 2871,
      "çļĦè¯Ŀ": 2872,
      "æĹ¶å°ļ": 2873,
      "Ġfun": 2874,
      "Ġlead": 2875,
      "æµĻ": 2876,
      "çī¹èī²": 2877,
      "ĠLe": 2878,
      "åħļçļĦ": 2879,
      "åĪ©çĶ¨": 2880,
      "å¸ģ": 2881,
      "å®īæİĴ": 2882,
      "Ġmarket": 2883,
      "çİĭèĢħ": 2884,
      "è§£åĨ³": 2885,
      "æķ´ä½ĵ": 2886,
      "æĥĬ": 2887,
      "çĬ¯": 2888,
      "Ġdet": 2889,
      "Ġoffer": 2890,
      "åĪĨéĴŁ": 2891,
      "å½ĵæĹ¶": 2892,
      "æ¢ħ": 2893,
      "31": 2894,
      "è¿ĩç¨ĭ": 2895,
      "çĸĨ": 2896,
      "Ġshould": 2897,
      "éĶ®": 2898,
      "éĽª": 2899,
      "äºĪ": 2900,
      "å½»": 2901,
      "åįģä¹Ŀå¤§": 2902,
      "ins": 2903,
      "ining": 2904,
      "ç»ıè¿ĩ": 2905,
      "Ġsupport": 2906,
      "me": 2907,
      "ĠOur": 2908,
      "æ¡£": 2909,
      "æĪªèĩ³": 2910,
      "æĸ°åŀĭ": 2911,
      "rest": 2912,
      "Ġ2017": 2913,
      "éķľ": 2914,
      "ä¹Łä¸į": 2915,
      "Ġadv": 2916,
      "æİ¨åĬ¨": 2917,
      "view": 2918,
      "è´¥": 2919,
      "åıĹåĪ°": 2920,
      "Ġbook": 2921,
      "ç¯®": 2922,
      "æİī": 2923,
      "åĿļæĮģ": 2924,
      "å²Ĺ": 2925,
      "è´´": 2926,
      "ãĢĲ": 2927,
      "ä¾§": 2928,
      "åĮºåŁŁ": 2929,
      "éľĢæ±Ĥ": 2930,
      "Ġcare": 2931,
      "æ·±åħ¥": 2932,
      "éĥĳ": 2933,
      "çĶµè§Ĩ": 2934,
      "åĿĲ": 2935,
      "led": 2936,
      "ton": 2937,
      "åĢĴ": 2938,
      "els": 2939,
      "æķĻå¸Ī": 2940,
      "ä¼¤å®³": 2941,
      "çĮ®": 2942,
      "Ġcould": 2943,
      "å°ıæĹ¶": 2944,
      "ãĢĳ": 2945,
      "ĠPl": 2946,
      "akes": 2947,
      "ç¬Ķ": 2948,
      "ather": 2949,
      "çĩ": 2950,
      "Ġservice": 2951,
      "ãĥ»": 2952,
      "è¡Įä¸º": 2953,
      "æĹ¥æľ¬": 2954,
      "çĥĪ": 2955,
      "ä¸¥éĩį": 2956,
      "èįī": 2957,
      "æī©": 2958,
      "è°ĥæŁ¥": 2959,
      "éĨ": 2960,
      "èĤī": 2961,
      "èĤ¯": 2962,
      "åĪĽä¸ļ": 2963,
      "Ġaut": 2964,
      "æ¦ľ": 2965,
      "é¢ĨåŁŁ": 2966,
      "70": 2967,
      "ĠTe": 2968,
      "Ġlar": 2969,
      "éŀ": 2970,
      "æĸ°å¢ŀ": 2971,
      "å¾Ĳ": 2972,
      "æŀĲ": 2973,
      "ĠHow": 2974,
      "å·¡": 2975,
      "ä¼Ļ": 2976,
      "BA": 2977,
      "rent": 2978,
      "é¡¾": 2979,
      "æįĲ": 2980,
      "roup": 2981,
      "çŃĶ": 2982,
      "éĽĨä¸Ń": 2983,
      "æľĪä»½": 2984,
      "èĮĥåĽ´": 2985,
      "çģµ": 2986,
      "æİ§åĪ¶": 2987,
      "æ±ĩ": 2988,
      "ä¸ªæľĪ": 2989,
      "Ġchild": 2990,
      "hip": 2991,
      "é©»": 2992,
      "å°ıåŃ¦": 2993,
      "ä¸įå¾Ĺ": 2994,
      "Ġsuch": 2995,
      "fect": 2996,
      "æĺ¯åľ¨": 2997,
      "ives": 2998,
      "å®¶éķ¿": 2999,
      "åıĤä¸İ": 3000,
      "æģ©": 3001,
      "è¾ĳ": 3002,
      "çĳŀ": 3003,
      "Ġi": 3004,
      "Ġvar": 3005,
      "éģŃ": 3006,
      "æľīä¸Ģ": 3007,
      "æĹ¶ä»£": 3008,
      "å»ºçŃĳ": 3009,
      "ç¡®ä¿Ŀ": 3010,
      "Ġpub": 3011,
      "åħ¨éĥ¨": 3012,
      "å®ľ": 3013,
      "åĬ³": 3014,
      "è®¨": 3015,
      "åĨ·": 3016,
      "Ġrep": 3017,
      "äº¡": 3018,
      "æĺİæĺ¾": 3019,
      "æİĪ": 3020,
      "ç»ĵåĲĪ": 3021,
      "ç§ĳåŃ¦": 3022,
      "Ġprogram": 3023,
      "åħ·ä½ĵ": 3024,
      "æĿ¥è¶Ĭ": 3025,
      "éĺ¶æ®µ": 3026,
      "ĠThere": 3027,
      "éĻĦ": 3028,
      "other": 3029,
      "è¯¢": 3030,
      "Ġfound": 3031,
      "ata": 3032,
      "å¤ĦçĲĨ": 3033,
      "è¶ĬæĿ¥è¶Ĭ": 3034,
      "å¥¹çļĦ": 3035,
      "èĳ£": 3036,
      "å®½": 3037,
      "Ġpol": 3038,
      "åĲ«": 3039,
      "å²ģçļĦ": 3040,
      "çłģ": 3041,
      "æŀ¶": 3042,
      "ology": 3043,
      "å¹¿ä¸ľ": 3044,
      "Ġcount": 3045,
      "æ±¡": 3046,
      "åħļåĳĺ": 3047,
      "æ³¨æĦı": 3048,
      "ĠQ": 3049,
      "Ġbefore": 3050,
      "Ġcompany": 3051,
      "æĶ»åĿļ": 3052,
      "èħ¿": 3053,
      "ä½ľçĶ¨": 3054,
      "au": 3055,
      "ä¸ĢèĪ¬": 3056,
      "æ¯ķä¸ļ": 3057,
      "Ġinter": 3058,
      "ĠOn": 3059,
      "è´Łè´£äºº": 3060,
      "å®ŀåĬĽ": 3061,
      "35": 3062,
      "Ġbeing": 3063,
      "Ġeach": 3064,
      "ç¾İåħĥ": 3065,
      "æĸĩæĺİ": 3066,
      "çŀ": 3067,
      "ä¸¾åĬŀ": 3068,
      "åĺī": 3069,
      "Ġservices": 3070,
      "æĮĩå¯¼": 3071,
      "æļĤ": 3072,
      "æĽ¼": 3073,
      "åĬªåĬĽ": 3074,
      "Ġexperience": 3075,
      "å¹´è½»": 3076,
      "cept": 3077,
      "å®Įåħ¨": 3078,
      "æľīæķĪ": 3079,
      "ved": 3080,
      "Ġproject": 3081,
      "æ°ĳèŃ¦": 3082,
      "è°·": 3083,
      "çļĦæĥħåĨµ": 3084,
      "æĹłæ³ķ": 3085,
      "Ġref": 3086,
      "äºĭæĥħ": 3087,
      "iel": 3088,
      "ery": 3089,
      "éģĹ": 3090,
      "æī§è¡Į": 3091,
      "Ġdifferent": 3092,
      "ital": 3093,
      "æļĸ": 3094,
      "åĲĦç§į": 3095,
      "ĠAll": 3096,
      "åįĹçľģ": 3097,
      "ĠEx": 3098,
      "æĺ¨": 3099,
      "iving": 3100,
      "åĩºæĿ¥": 3101,
      "ä¼į": 3102,
      "æĻ¨": 3103,
      "Ġhand": 3104,
      "Ġwhile": 3105,
      "åĲ¯åĬ¨": 3106,
      "Ġspecial": 3107,
      "ĠBut": 3108,
      "æĻ®éĢļ": 3109,
      "åħ±åĲĮ": 3110,
      "çĶµå½±": 3111,
      "ah": 3112,
      "æł¸å¿ĥ": 3113,
      "Ġfamily": 3114,
      "åı«": 3115,
      "çļĦé«ĺ": 3116,
      "Ġpur": 3117,
      "Ġstr": 3118,
      "read": 3119,
      "æķĮ": 3120,
      "äºĭä¸ļ": 3121,
      "å·¦åı³": 3122,
      "åħ³ç³»": 3123,
      "æµĻæ±Ł": 3124,
      "èµ¢": 3125,
      "æĪ´": 3126,
      "åĭĩ": 3127,
      "orn": 3128,
      "æĪĳåĽ½": 3129,
      "Ġusing": 3130,
      "ç®Ģåįķ": 3131,
      "éĴĪå¯¹": 3132,
      "æ¤į": 3133,
      "ä¸ĭåįĪ": 3134,
      "Ġprovide": 3135,
      "å°¤åħ¶": 3136,
      "load": 3137,
      "Ġcle": 3138,
      "èº«æĿĲ": 3139,
      "ized": 3140,
      "ene": 3141,
      "è®¸å¤ļ": 3142,
      "Ġsom": 3143,
      "æįŁ": 3144,
      "æķ£": 3145,
      "Ġmonth": 3146,
      "Ġbecause": 3147,
      "Ġret": 3148,
      "Ġopen": 3149,
      "é¾Ħ": 3150,
      "ç´¯è®¡": 3151,
      "åĬ±": 3152,
      "ished": 3153,
      "ä¹ĺ": 3154,
      "ĠCol": 3155,
      "é£Łåĵģ": 3156,
      "ä¿ĿæĮģ": 3157,
      "è¾ħ": 3158,
      "ways": 3159,
      "æľīäºĽ": 3160,
      "Ġdisc": 3161,
      "çļĩ": 3162,
      "Ġide": 3163,
      "Ġdoes": 3164,
      "Ġthink": 3165,
      "ç«¥": 3166,
      "Ġbuild": 3167,
      "å§Ķä¼ļ": 3168,
      "ross": 3169,
      "çĽĽ": 3170,
      "çº¿ä¸Ĭ": 3171,
      "æĪ¿åŃĲ": 3172,
      "éļĲ": 3173,
      "å±ħæ°ĳ": 3174,
      "è§Ħæ¨¡": 3175,
      "å±ĭ": 3176,
      "é²ľ": 3177,
      "Ġend": 3178,
      "å§Ĩ": 3179,
      "åĪ¶åº¦": 3180,
      "è¯º": 3181,
      "ĠWith": 3182,
      "Ġfollow": 3183,
      "éĥ½ä¼ļ": 3184,
      "orth": 3185,
      "å·¥ä¸ļ": 3186,
      "Ġthose": 3187,
      "Ġsub": 3188,
      "åľ³": 3189,
      "å¹¶ä¸į": 3190,
      "çļĦæĸ°": 3191,
      "ually": 3192,
      "æĺ¯ä¸Ģä¸ª": 3193,
      "è½¦è¾Ĩ": 3194,
      "åŁºåľ°": 3195,
      "è¿ĩåİ»": 3196,
      "å¾Īå¤ļäºº": 3197,
      "æīİ": 3198,
      "æ·±åľ³": 3199,
      "æĽ²": 3200,
      "éľĩ": 3201,
      "å¯¼èĩ´": 3202,
      "èĦļ": 3203,
      "å«Į": 3204,
      "Ġphot": 3205,
      "æĺİæĺŁ": 3206,
      "æľĢå¤§": 3207,
      "Ġtoday": 3208,
      "Ġext": 3209,
      "æĮĤ": 3210,
      "ä¸įéĶĻ": 3211,
      "aint": 3212,
      "ç©ºéĹ´": 3213,
      "æĺİç¡®": 3214,
      "çĶ³è¯·": 3215,
      "è§Ĥä¼Ĺ": 3216,
      "Ġ20": 3217,
      "æĪĲç«ĭ": 3218,
      "åĪº": 3219,
      "ired": 3220,
      "ä»¥ä¸ĭ": 3221,
      "Ġprocess": 3222,
      "ĠTo": 3223,
      "åħ¬åħ±": 3224,
      "atur": 3225,
      "NG": 3226,
      "æ¯Ķå¦Ĥ": 3227,
      "æ¦Ĥ": 3228,
      "ç½ĳä¸Ĭ": 3229,
      "èĩªæ²»": 3230,
      "éĥ½æľī": 3231,
      "éĻķ": 3232,
      "Ġcour": 3233,
      "åıĳæĮ¥": 3234,
      "å·¥ä½ľäººåĳĺ": 3235,
      "æĺ¯åĲ¦": 3236,
      "åľ¨å®¶": 3237,
      "Ġquality": 3238,
      "ness": 3239,
      "é£İæł¼": 3240,
      "ä¸»é¢ĺ": 3241,
      "Ġclass": 3242,
      "èİ±": 3243,
      "Ġfew": 3244,
      "æŃ¤åīį": 3245,
      "Ġplan": 3246,
      "ES": 3247,
      "Ġann": 3248,
      "ittle": 3249,
      "çĽ¸ä¿¡": 3250,
      "ç©¿æĲŃ": 3251,
      "äººæīį": 3252,
      "Ġboth": 3253,
      "imes": 3254,
      "Ġhealth": 3255,
      "Ġfil": 3256,
      "éĩįåºĨ": 3257,
      "Ġschool": 3258,
      "æĪĺçķ¥": 3259,
      "å®ħ": 3260,
      "å¸Ĥæ°ĳ": 3261,
      "çĽĳçĿ£": 3262,
      "å¨ľ": 3263,
      "æĭĽæłĩ": 3264,
      "Ġfrie": 3265,
      "çīĪæľ¬": 3266,
      "æ¶¦": 3267,
      "Ġagain": 3268,
      "ween": 3269,
      "æ´ĭ": 3270,
      "äº¤æµģ": 3271,
      "!!": 3272,
      "åıĺåĮĸ": 3273,
      "ç¬¦": 3274,
      "Ġrun": 3275,
      "ä¼łç»Ł": 3276,
      "ered": 3277,
      "å¤§ä¼ļ": 3278,
      "æľīçļĦ": 3279,
      "Ġorgan": 3280,
      "æķĻåŃ¦": 3281,
      "æ¯ķç«Ł": 3282,
      "åĨ°": 3283,
      "éĿ¢å¯¹": 3284,
      "Ġonline": 3285,
      "æĦıè§ģ": 3286,
      "æĹ¢": 3287,
      "ĠSc": 3288,
      "çĶµè¯Ŀ": 3289,
      "ä½įç½®": 3290,
      "ç§Ĵ": 3291,
      "éĩįå¤§": 3292,
      "éĿĻ": 3293,
      "çĶĺ": 3294,
      "Ġsmall": 3295,
      "åĪĨæŀĲ": 3296,
      "çº¯": 3297,
      "åŁºéĩĳ": 3298,
      "room": 3299,
      "ER": 3300,
      "Ġcent": 3301,
      "ä¸įåĪ°": 3302,
      "å¾ĹåĪ°": 3303,
      "åĨ¬": 3304,
      "éĶĭ": 3305,
      "ĠWhat": 3306,
      "This": 3307,
      "çŁ¥è¯Ĩ": 3308,
      "åħ³éĶ®": 3309,
      "è§¦": 3310,
      "æī¬": 3311,
      "æ´Ľ": 3312,
      "æľºåĪ¶": 3313,
      "ED": 3314,
      "ĠSo": 3315,
      "èµ¶": 3316,
      "éŃĶ": 3317,
      "Ġbra": 3318,
      "è®¢": 3319,
      "ä½įäºİ": 3320,
      "å¸ħ": 3321,
      "é¦ĸåħĪ": 3322,
      "Ġimport": 3323,
      "å®¹æĺĵ": 3324,
      "åĨįæ¬¡": 3325,
      "gg": 3326,
      "ĠInd": 3327,
      "å¿ħé¡»": 3328,
      "Ġlot": 3329,
      "bers": 3330,
      "çīĻ": 3331,
      "Ġty": 3332,
      "ä¹ĭéĹ´": 3333,
      "Ġconf": 3334,
      "åıĬæĹ¶": 3335,
      "æ¸Ĳ": 3336,
      "æľºåħ³": 3337,
      "éĢĶ": 3338,
      "ä½ĵéªĮ": 3339,
      "è¡ĮæĶ¿": 3340,
      "è®¾å¤ĩ": 3341,
      "reen": 3342,
      "è¿Ł": 3343,
      "èģĺ": 3344,
      "èį£èĢĢ": 3345,
      "ç¨³å®ļ": 3346,
      "èģĶèµĽ": 3347,
      "Ġè¿Ļ": 3348,
      "åĩ¯": 3349,
      "ä¸¹": 3350,
      "Ġsign": 3351,
      "èĻĳ": 3352,
      "ä¸ĬäºĨ": 3353,
      "ants": 3354,
      "Ġdid": 3355,
      "ç¡®å®ļ": 3356,
      "ç¡¬": 3357,
      "é«ĺæł¡": 3358,
      "çĹĩ": 3359,
      "less": 3360,
      "uc": 3361,
      "----": 3362,
      "å¾®ä¿¡": 3363,
      "å¦ĤæŃ¤": 3364,
      "éĥ¨ç½²": 3365,
      "åĨłçĬ¶": 3366,
      "æ½®": 3367,
      "Ġchar": 3368,
      "æĿĳæ°ĳ": 3369,
      "èľ": 3370,
      "å°¾": 3371,
      "å½ĵçĦ¶": 3372,
      "ware": 3373,
      "å»ºç«ĭ": 3374,
      "å¦ĩ": 3375,
      "æģĴ": 3376,
      "åı¯ä»¥è¯´": 3377,
      "ä½ıæĪ¿": 3378,
      "Ġæĸ°": 3379,
      "ral": 3380,
      "att": 3381,
      "ĠThey": 3382,
      "åįĩçº§": 3383,
      "æ¯«": 3384,
      "èĤ¡ä»½": 3385,
      "ien": 3386,
      "Ġbetween": 3387,
      "Ġfull": 3388,
      "è¿ŀç»Ń": 3389,
      "Ġwebs": 3390,
      "çĦ¦": 3391,
      "riv": 3392,
      "æ´ª": 3393,
      "éŀĭ": 3394,
      "éļĶç¦»": 3395,
      "æ¯ıå¤©": 3396,
      "ä»Ļ": 3397,
      "åĨłçĬ¶çĹħæ¯Ĵ": 3398,
      "ç¤ºèĮĥ": 3399,
      "åıªæĺ¯": 3400,
      "çľĭèµ·æĿ¥": 3401,
      "ames": 3402,
      "Ġsaid": 3403,
      "ists": 3404,
      "Ġmus": 3405,
      "çĶµåŃĲ": 3406,
      "ç¼ĸè¾ĳ": 3407,
      "çİ°ä»£": 3408,
      "meric": 3409,
      "Ġopt": 3410,
      "èĭ¦": 3411,
      "æĩ": 3412,
      "Ġval": 3413,
      "ç½ļ": 3414,
      "åĲİçļĦ": 3415,
      "ä»»ä½ķ": 3416,
      "è´·æ¬¾": 3417,
      "é«ĺéĢŁ": 3418,
      "ä»¬çļĦ": 3419,
      "ä¸ĭéĻį": 3420,
      "è®¾æĸ½": 3421,
      "æķ´ä¸ª": 3422,
      "ĠAt": 3423,
      "èĥ½æºĲ": 3424,
      "èĥ¡": 3425,
      "æĪ¿åľ°äº§": 3426,
      "èĻİ": 3427,
      "æľºä¼ļ": 3428,
      "Ġarea": 3429,
      "500": 3430,
      "Ġincluding": 3431,
      "uss": 3432,
      "æ£Ģæµĭ": 3433,
      "ars": 3434,
      "SU": 3435,
      "æĽĿ": 3436,
      "ling": 3437,
      "be": 3438,
      "é±": 3439,
      "Ġlooking": 3440,
      "æĹ¥åīį": 3441,
      "man": 3442,
      "ç¿»": 3443,
      "åĬ¨åĬĽ": 3444,
      "ever": 3445,
      "Ġwater": 3446,
      "è¯Ĺ": 3447,
      "æĢķ": 3448,
      "éĢļè®¯": 3449,
      "æĽ´å¤ļ": 3450,
      "ä¹±": 3451,
      "å¼¹": 3452,
      "èµĦæł¼": 3453,
      "Ġprofess": 3454,
      "å¥ĭ": 3455,
      "Ġ2019": 3456,
      "å¼±": 3457,
      "é©¾é©¶": 3458,
      "è´Ńä¹°": 3459,
      "oot": 3460,
      "ä¹Ķ": 3461,
      "ows": 3462,
      "çļĦå¥³": 3463,
      "é±¼": 3464,
      "ä¼¦": 3465,
      "ä¼ļä¸Ĭ": 3466,
      "é«ĺèĢĥ": 3467,
      "ield": 3468,
      "æ²Ł": 3469,
      "å¹³æĸ¹": 3470,
      "éģ¿": 3471,
      "éĹ²": 3472,
      "æĮĩåĩº": 3473,
      "æĵįä½ľ": 3474,
      "æĻºèĥ½": 3475,
      "ç§ģ": 3476,
      "èħ°": 3477,
      "åįĬå¹´": 3478,
      "åľºæ¯ĶèµĽ": 3479,
      "å¤©æ´¥": 3480,
      "å¡ŀ": 3481,
      "çĦ¶èĢĮ": 3482,
      "æĤ£èĢħ": 3483,
      "joy": 3484,
      "ined": 3485,
      "ott": 3486,
      "å¾½": 3487,
      "Ġexc": 3488,
      "å¦»": 3489,
      "æ³ķéĻ¢": 3490,
      "æĥ³è¦ģ": 3491,
      "æģ¢": 3492,
      "lection": 3493,
      "èĭ¥": 3494,
      "ä¸ĢåĲį": 3495,
      "çĽĳç®¡": 3496,
      "Ġthree": 3497,
      "ä¼ĺç§Ģ": 3498,
      "Ġcurrent": 3499,
      "åľŁåľ°": 3500,
      "æ´ģ": 3501,
      "éĹŃ": 3502,
      "Ġbeaut": 3503,
      "å»ºè®®": 3504,
      "èīºæľ¯": 3505,
      "æħ¢": 3506,
      "å¤º": 3507,
      "çİ¯ä¿Ŀ": 3508,
      "æ°Ķè´¨": 3509,
      "é¢Ħè®¡": 3510,
      "åĲĦåľ°": 3511,
      "åĬŁèĥ½": 3512,
      "rist": 3513,
      "work": 3514,
      "é¸¡": 3515,
      "è¿ĳå¹³": 3516,
      "çĥŁ": 3517,
      "outh": 3518,
      "Ġreally": 3519,
      "åĬłå¿«": 3520,
      "Ġreal": 3521,
      "æ±ł": 3522,
      "...": 3523,
      "Ġlight": 3524,
      "ĠBl": 3525,
      "é£İéĻ©": 3526,
      "æķħäºĭ": 3527,
      "ior": 3528,
      "ä¹łè¿ĳå¹³": 3529,
      "ĠPh": 3530,
      "æ³ī": 3531,
      "æĹ¥çĶµ": 3532,
      "éĩĩåıĸ": 3533,
      "éģĵè·¯": 3534,
      "éĶĢéĩı": 3535,
      "æŀª": 3536,
      "æĿ¥åĪ°": 3537,
      "ients": 3538,
      "å°±ä¸ļ": 3539,
      "Ġpat": 3540,
      "åĲĽ": 3541,
      "ĠCon": 3542,
      "ium": 3543,
      "åĢ¼å¾Ĺ": 3544,
      "åħħåĪĨ": 3545,
      "æİĴåĲį": 3546,
      "Ġgener": 3547,
      "Ġlittle": 3548,
      "çªĹ": 3549,
      "æĺł": 3550,
      "çļĦéĹ®é¢ĺ": 3551,
      "ä¹Į": 3552,
      "Ġstand": 3553,
      "éĢłæĪĲ": 3554,
      "99": 3555,
      "ute": 3556,
      "Ġalways": 3557,
      "ä¿ĥè¿Ľ": 3558,
      "æģ¢å¤į": 3559,
      "Ġperform": 3560,
      "ĠZ": 3561,
      "çŃ¹": 3562,
      "Ġdri": 3563,
      "æ»ĳ": 3564,
      "Ġappro": 3565,
      "gy": 3566,
      "çļĦéĩįè¦ģ": 3567,
      "èĤ¯å®ļ": 3568,
      "Ġve": 3569,
      "Ġnumber": 3570,
      "2018": 3571,
      "æ®Ĭ": 3572,
      "Ġhapp": 3573,
      "è£ħå¤ĩ": 3574,
      "Ġ2018": 3575,
      "éĻķè¥¿": 3576,
      "èµŀ": 3577,
      "è¿ħ": 3578,
      "èĪ¹": 3579,
      "ĠIs": 3580,
      "å¤įå·¥": 3581,
      "é¥®": 3582,
      "è´¸": 3583,
      "æľĢæĸ°": 3584,
      "dition": 3585,
      "Ġproducts": 3586,
      "Ġcome": 3587,
      "éļıåĲİ": 3588,
      "åĽº": 3589,
      "åħ¬è·¯": 3590,
      "æĪĲåĳĺ": 3591,
      "cer": 3592,
      "è£ģ": 3593,
      "Ġroom": 3594,
      "å¦¹": 3595,
      "Ġsite": 3596,
      "ç§ĺ": 3597,
      "ç»ķ": 3598,
      "æ¸¸å®¢": 3599,
      "Ġkeep": 3600,
      "çĸ¾": 3601,
      "iversity": 3602,
      "æĶ¿æ²»": 3603,
      "æĻ¯åĮº": 3604,
      "ä¸įè¦ģ": 3605,
      "Ġblo": 3606,
      "Ġpage": 3607,
      "Ġinterest": 3608,
      "æĿ¯": 3609,
      "éĩĬ": 3610,
      "ç»Īäºİ": 3611,
      "Ġduring": 3612,
      "ç¡®è¯ĬçĹħä¾ĭ": 3613,
      "Ġaccess": 3614,
      "æ³ķå¾ĭ": 3615,
      "å®ĭ": 3616,
      "ĠMan": 3617,
      "åĪĨäº«": 3618,
      "æĿ°": 3619,
      "iver": 3620,
      "ä¼°": 3621,
      "ä¸Ģä½į": 3622,
      "æĹ¥æĬ¥": 3623,
      "æŃ£å¸¸": 3624,
      "èĤ¥": 3625,
      "Ġsince": 3626,
      "éĺŁä¼į": 3627,
      "æıĲåĩº": 3628,
      "ç»Łè®¡": 3629,
      "ee": 3630,
      "ĠShe": 3631,
      "Ġmod": 3632,
      "Ġthough": 3633,
      "br": 3634,
      "Ġreport": 3635,
      "å¼ĢæĶ¾": 3636,
      "èģĶç½ĳ": 3637,
      "å±±è¥¿": 3638,
      "ĠCan": 3639,
      "åĳĬè¯ī": 3640,
      "è¯ļ": 3641,
      "ç»¿èī²": 3642,
      "çħ§çīĩ": 3643,
      "ĠAmeric": 3644,
      "èĦĳ": 3645,
      "æĭŁ": 3646,
      "Ġindust": 3647,
      "æĹ¥ä¸ĬåįĪ": 3648,
      "plo": 3649,
      "45": 3650,
      "èħ¾": 3651,
      "æ¢ģ": 3652,
      "ody": 3653,
      "ique": 3654,
      "å¼Ł": 3655,
      "çĶľ": 3656,
      "æľ¬æ¬¡": 3657,
      "åŁºå±Ĥ": 3658,
      "å±ŀäºİ": 3659,
      "Ġgoing": 3660,
      "æ±Łèĭı": 3661,
      "åĲĮåŃ¦": 3662,
      "æľ±": 3663,
      "Ġproper": 3664,
      "å½ĵåīį": 3665,
      "å¿ĹæĦ¿": 3666,
      "åı¶": 3667,
      "é¦Ļæ¸¯": 3668,
      "åĪ·": 3669,
      "åħļå§Ķ": 3670,
      "è®¤çľŁ": 3671,
      "Ġdef": 3672,
      "æľīäºº": 3673,
      "Ġdirect": 3674,
      "åı¥": 3675,
      "Ġquest": 3676,
      "åīĳ": 3677,
      "Ġpop": 3678,
      "æĥ³åĪ°": 3679,
      "å¥¶": 3680,
      "Ġrece": 3681,
      "We": 3682,
      "Ġrest": 3683,
      "èģĬ": 3684,
      "æĬĺ": 3685,
      "å°ıåĮº": 3686,
      "èª": 3687,
      "æľīçĿĢ": 3688,
      "æ²¿": 3689,
      "åĶĲ": 3690,
      "ves": 3691,
      "é¼ĵ": 3692,
      "Ġperfect": 3693,
      "æĸ°çĸĨ": 3694,
      "Ġstill": 3695,
      "çĺ": 3696,
      "ccess": 3697,
      "éĩĩè®¿": 3698,
      "å¯»": 3699,
      "33": 3700,
      "ering": 3701,
      "çº·çº·": 3702,
      "ĠCo": 3703,
      "æĪĲéĥ½": 3704,
      "äº©": 3705,
      "çľģå§Ķ": 3706,
      "Ġeng": 3707,
      "eng": 3708,
      "Ġvisit": 3709,
      "åħĪçĶŁ": 3710,
      "Ġpass": 3711,
      "PL": 3712,
      "åķĬ": 3713,
      "Ġfeel": 3714,
      "æĸ°åŀĭåĨłçĬ¶çĹħæ¯Ĵ": 3715,
      "ä¸ĵé¡¹": 3716,
      "åıªèĥ½": 3717,
      "ä½ľåĵģ": 3718,
      "ç²¾åĩĨ": 3719,
      "ruct": 3720,
      "ä¸ĭæĿ¥": 3721,
      "éĩĮçļĦ": 3722,
      "è¿ĳæľŁ": 3723,
      "åŁİåĮº": 3724,
      "Ġdist": 3725,
      "æµª": 3726,
      "èĤĥ": 3727,
      "ä¿ĿéĻ©": 3728,
      "åĲĮæł·": 3729,
      "Ġold": 3730,
      "è¡«": 3731,
      "å¤§ä¼Ĺ": 3732,
      "çĭĤ": 3733,
      "stand": 3734,
      "å²¸": 3735,
      "ç»Łä¸Ģ": 3736,
      "ĠRes": 3737,
      "ours": 3738,
      "çĶ·åŃĲ": 3739,
      "è´Ŀ": 3740,
      "aj": 3741,
      "å°±ä¼ļ": 3742,
      "ps": 3743,
      "é«ĺçļĦ": 3744,
      "åıªè¦ģ": 3745,
      "ĠèĢĮ": 3746,
      "æŃ»äº¡": 3747,
      "Ġcomple": 3748,
      "æ¶Īè´¹èĢħ": 3749,
      "è®Ńç»ĥ": 3750,
      "ä½ĵç³»": 3751,
      "å§Ķåĳĺä¼ļ": 3752,
      "èĳĹ": 3753,
      "éĥŃ": 3754,
      "ä¸ĭçļĦ": 3755,
      "æĿŃ": 3756,
      "ĠCent": 3757,
      "éľ¸": 3758,
      "Ġä¸Ń": 3759,
      "å±ı": 3760,
      "SUV": 3761,
      "è´µå·ŀ": 3762,
      "åģı": 3763,
      "åĳĪ": 3764,
      "Ġwebsite": 3765,
      "Ġthings": 3766,
      "åľĨ": 3767,
      "é¦ĸæ¬¡": 3768,
      "æĺ¾å¾Ĺ": 3769,
      "iful": 3770,
      "Ġsame": 3771,
      "ä¸¤äºº": 3772,
      "con": 3773,
      "èĢģäºº": 3774,
      "Ġbig": 3775,
      "è¦": 3776,
      "36": 3777,
      "åĽ°éļ¾": 3778,
      "yle": 3779,
      "Ġcor": 3780,
      "thing": 3781,
      "å¥Ķ": 3782,
      "åĽ¢éĺŁ": 3783,
      "åľ¨çº¿": 3784,
      "æħ§": 3785,
      "é¥Ń": 3786,
      "Ġdata": 3787,
      "ĠSp": 3788,
      "ĠOr": 3789,
      "åĿĽ": 3790,
      "ms": 3791,
      "æĳĨ": 3792,
      "è´¯å½»": 3793,
      "èĤĸ": 3794,
      "åĬŀçĲĨ": 3795,
      "Ġeasy": 3796,
      "åĬłä¸Ĭ": 3797,
      "å®¢æĪ·": 3798,
      "ä¸ĩäºº": 3799,
      "Ġgrow": 3800,
      "æľĿ": 3801,
      "äºĭä»¶": 3802,
      "è¿Ļä½į": 3803,
      "ically": 3804,
      "éŁ©åĽ½": 3805,
      "Ġpartic": 3806,
      "æ¾³": 3807,
      "Ġdays": 3808,
      "ina": 3809,
      "ç¡®å®ŀ": 3810,
      "è¯¯": 3811,
      "In": 3812,
      "åĶ±": 3813,
      "ently": 3814,
      "çĽ¸æ¯Ķ": 3815,
      "88": 3816,
      "åĲ¸å¼ķ": 3817,
      "Ġmeet": 3818,
      "ä¸ºä»Ģä¹Ī": 3819,
      "åİļ": 3820,
      "éĨĴ": 3821,
      "ĠWhen": 3822,
      "åŃ£åº¦": 3823,
      "Ġest": 3824,
      "èİ«": 3825,
      "èģĶçĽŁ": 3826,
      "ĠJo": 3827,
      "ç½ĳç«Ļ": 3828,
      "åĪ¶éĢł": 3829,
      "æĻĴ": 3830,
      "Ġbelow": 3831,
      "è½¯": 3832,
      "nect": 3833,
      "Ġtri": 3834,
      "Ġposs": 3835,
      "èĮ¶": 3836,
      "ĠãĢĬ": 3837,
      "æľ«": 3838,
      "åĩŃ": 3839,
      "åı°æ¹¾": 3840,
      "ode": 3841,
      "éĢĤåĲĪ": 3842,
      "éĥ½åľ¨": 3843,
      "æ°ĳæĹı": 3844,
      "çī¹æ®Ĭ": 3845,
      "Ġgroup": 3846,
      "éĶ¦": 3847,
      "Ġä»İ": 3848,
      "ç¬¦åĲĪ": 3849,
      "è¥¿å®ī": 3850,
      "è´¦": 3851,
      "Ġcr": 3852,
      "ards": 3853,
      "è¶£": 3854,
      "å·¥ä½ľçļĦ": 3855,
      "ipp": 3856,
      "Ġspec": 3857,
      "Ġhead": 3858,
      "åĢº": 3859,
      "ä¸ĢçĤ¹": 3860,
      "æĶ¹éĢł": 3861,
      "mm": 3862,
      "æķ´æ²»": 3863,
      "ron": 3864,
      "Ġimportant": 3865,
      "èĦ±è´«æĶ»åĿļ": 3866,
      "å®ĩ": 3867,
      "Ġstate": 3868,
      "Ġiss": 3869,
      "ä¾ĽåºĶ": 3870,
      "ç±į": 3871,
      "å¹´åº¦": 3872,
      "ä»Ķ": 3873,
      "è°ĥçłĶ": 3874,
      "âĢķâĢķ": 3875,
      "AT": 3876,
      "è¯¦": 3877,
      "æĽ¾ç»ı": 3878,
      "ä»·åĢ¼": 3879,
      "Ġview": 3880,
      "èĪĴ": 3881,
      "çļĦè®¾è®¡": 3882,
      "æŃ¤å¤ĸ": 3883,
      "Ġsure": 3884,
      "Ġhard": 3885,
      "ä¾ĿçĦ¶": 3886,
      "è·¨": 3887,
      "bo": 3888,
      "å¹¼": 3889,
      "å®īå¾½": 3890,
      "Ġlocal": 3891,
      "æĻĭ": 3892,
      "AR": 3893,
      "åĳĺå·¥": 3894,
      "ote": 3895,
      "Ġsl": 3896,
      "Ġnext": 3897,
      "Ġresult": 3898,
      "èĭ±åĽ½": 3899,
      "Ġworking": 3900,
      "åĬŀæ³ķ": 3901,
      "æĿĤ": 3902,
      "åĭĴ": 3903,
      "ä¸¥æł¼": 3904,
      "è¡¬": 3905,
      "Ġtoo": 3906,
      "Ġvide": 3907,
      "å¹¿å·ŀ": 3908,
      "éĵ¾": 3909,
      "åķĨä¸ļ": 3910,
      "çľĭçľĭ": 3911,
      "Ġoper": 3912,
      "å¤§åĪ©": 3913,
      "Ġgame": 3914,
      "Ġevent": 3915,
      "æı¡": 3916,
      "Ġè¿ĳæĹ¥": 3917,
      "éĢļè®¯åĳĺ": 3918,
      "Ġwin": 3919,
      "æ®µæĹ¶éĹ´": 3920,
      "æĪĳçļĦ": 3921,
      "å¼ºåĮĸ": 3922,
      "Ġresp": 3923,
      "æ¬£": 3924,
      "Ġgl": 3925,
      "åįıä¼ļ": 3926,
      "ä¸ģ": 3927,
      "Ġenjoy": 3928,
      "ON": 3929,
      "åĲĪåĲĮ": 3930,
      "ogra": 3931,
      "Ġfac": 3932,
      "ä¸Ģå®¶": 3933,
      "è¿ģ": 3934,
      "æĽ´æĸ°": 3935,
      "å¿«éĢŁ": 3936,
      "ä»ªå¼ı": 3937,
      "nce": 3938,
      "éĥ½ä¸į": 3939,
      "Ġ18": 3940,
      "Ġgive": 3941,
      "Ġstre": 3942,
      "æĦıè¯Ĩ": 3943,
      "å®Ĺ": 3944,
      "èĢĥèĻĳ": 3945,
      "ä¸Ģçº¿": 3946,
      "æĹ¶æľŁ": 3947,
      "è¯į": 3948,
      "æ¡Īä»¶": 3949,
      "çİĭèĢħèį£èĢĢ": 3950,
      "çĦ¶åĲİ": 3951,
      "åĩıå°ĳ": 3952,
      "èı²": 3953,
      "ç«ŀäºī": 3954,
      "å¥³åĦ¿": 3955,
      "èº«ä»½": 3956,
      "å±ķç¤º": 3957,
      "äººåı£": 3958,
      "åĩĮ": 3959,
      "æİ¨åĩº": 3960,
      "ains": 3961,
      "ç»ıå¸¸": 3962,
      "åĤ¨": 3963,
      "por": 3964,
      "ä¿Ħ": 3965,
      "é»ĳèī²": 3966,
      "åĩłä¹İ": 3967,
      "æ··": 3968,
      "ä¸Ģç§į": 3969,
      "Ġear": 3970,
      "ä¸īä¸ª": 3971,
      "è¦Ĩ": 3972,
      "éĢĴ": 3973,
      "åĶ¯": 3974,
      "æ´Ĺ": 3975,
      "å°¤åħ¶æĺ¯": 3976,
      "è¿Ŀæ³ķ": 3977,
      "ä¸Ģå¹´": 3978,
      "æ²³åĮĹ": 3979,
      "ĠDo": 3980,
      "ç»ıéªĮ": 3981,
      "èµĦæĸĻ": 3982,
      "Ġstudents": 3983,
      "éĩĮéĿ¢": 3984,
      "Ġhim": 3985,
      "æĿĲæĸĻ": 3986,
      "Ġ12": 3987,
      "èĩªæ²»åĮº": 3988,
      "çĶŁçļĦ": 3989,
      "ä½Ľ": 3990,
      "ision": 3991,
      "Ġjo": 3992,
      "ething": 3993,
      "åıĮæĸ¹": 3994,
      "è½¦çļĦ": 3995,
      "åħ¬å®īå±Ģ": 3996,
      "ley": 3997,
      "æ²»çĲĨ": 3998,
      "çıł": 3999,
      "ding": 4000,
      "å®¾": 4001,
      "å¸¦æĿ¥": 4002,
      "å½¢æĪĲ": 4003,
      "æĸ°åĮº": 4004,
      "æĸ½å·¥": 4005,
      "ator": 4006,
      "Ġsupp": 4007,
      "aper": 4008,
      "ploy": 4009,
      "å¹¿è¥¿": 4010,
      "æĢĿæĥ³": 4011,
      "Ġintern": 4012,
      "æ±Łè¥¿": 4013,
      "ately": 4014,
      "çĪ¸": 4015,
      "åĪĳ": 4016,
      "ä¸ŃåŃ¦": 4017,
      "æĬ½": 4018,
      "ĠUS": 4019,
      "Ġcost": 4020,
      "çĵ¦": 4021,
      "75": 4022,
      "åĢį": 4023,
      "è¿ĲèĲ¥": 4024,
      "Ġorder": 4025,
      "Ġrese": 4026,
      "åĽ¾çīĩ": 4027,
      "èµ·äºĨ": 4028,
      "èĳ£äºĭ": 4029,
      "Ġbro": 4030,
      "è§ĦèĮĥ": 4031,
      "Ġ|": 4032,
      "ä¸»å¸Ń": 4033,
      "æĪ¿ä»·": 4034,
      "åĪ°åºķ": 4035,
      "agement": 4036,
      "èº«ä½ĵ": 4037,
      "éĴ¢": 4038,
      "iety": 4039,
      "ĠTr": 4040,
      "çĽ¸å½ĵ": 4041,
      "Ġsoc": 4042,
      "åĨĮ": 4043,
      "inal": 4044,
      "åį³å°Ĩ": 4045,
      "self": 4046,
      "ä¸Ĭçº¿": 4047,
      "æİĮ": 4048,
      "ury": 4049,
      "å¼ĢåĲ¯": 4050,
      "Ġcreat": 4051,
      "Ġpower": 4052,
      "Ġair": 4053,
      "Ġla": 4054,
      "åİĭåĬĽ": 4055,
      "ĠPr": 4056,
      "ats": 4057,
      "åĬĽéĩı": 4058,
      "Ġwithin": 4059,
      "Ġfood": 4060,
      "Ġequ": 4061,
      "Ġob": 4062,
      "æĹłè®º": 4063,
      "æ³½": 4064,
      "aster": 4065,
      "ared": 4066,
      "æ¬¢è¿İ": 4067,
      "çĶ¨æĪ·": 4068,
      "çĬ¯ç½ª": 4069,
      "è¾ī": 4070,
      "æĸĩä»¶": 4071,
      "vent": 4072,
      "ç¼ĵ": 4073,
      "è¿ħéĢŁ": 4074,
      "å¹¿å¤§": 4075,
      "æ²ī": 4076,
      "èİ·æĤī": 4077,
      "iron": 4078,
      "Ġbre": 4079,
      "Ġneeds": 4080,
      "åĨ³èµĽ": 4081,
      "å¹³æĸ¹ç±³": 4082,
      "éĿĴå¹´": 4083,
      "Ġlet": 4084,
      "æķ¢": 4085,
      "å¥¥è¿Ĳ": 4086,
      "Ġwithout": 4087,
      "è·Ŀç¦»": 4088,
      "ems": 4089,
      "äººä»¬": 4090,
      "Ġsecond": 4091,
      "ĠMe": 4092,
      "æīįèĥ½": 4093,
      "Ġlevel": 4094,
      "å¼ĥ": 4095,
      "å¹¶æ²¡æľī": 4096,
      "Ġpay": 4097,
      "éĺħ": 4098,
      "oney": 4099,
      "Ġinf": 4100,
      "å½¢å¼ı": 4101,
      "98": 4102,
      "åºĬ": 4103,
      "æĢ§çļĦ": 4104,
      "ĠMar": 4105,
      "ured": 4106,
      "åı¦å¤ĸ": 4107,
      "Ġname": 4108,
      "Ġpoint": 4109,
      "è·³": 4110,
      "Ġcontin": 4111,
      "ä¸»æĮģ": 4112,
      "Ġapplic": 4113,
      "ä¸Ńåįİ": 4114,
      "ä¸°å¯Į": 4115,
      "ç¼´": 4116,
      "Ġproble": 4117,
      "æĸ¹åĲĳ": 4118,
      "æĹ¥è®¯": 4119,
      "äºĴèģĶç½ĳ": 4120,
      "å°±åľ¨": 4121,
      "Ġmet": 4122,
      "Ġtry": 4123,
      "æĪĳå¸Ĥ": 4124,
      "å®¿": 4125,
      "çĶµåĬ¨": 4126,
      "Ġ15": 4127,
      "è´¡": 4128,
      "to": 4129,
      "ä¸Ĭæ¶¨": 4130,
      "Ġoffers": 4131,
      "å¤§å¤ļ": 4132,
      "æ»¨": 4133,
      "Ġprom": 4134,
      "ope": 4135,
      "åħįè´¹": 4136,
      "éª¨": 4137,
      "app": 4138,
      "æıĲåīį": 4139,
      "Ġsay": 4140,
      "äºĨä¸Ģä¸ª": 4141,
      "åĩºå¸Ń": 4142,
      "è´¢æĶ¿": 4143,
      "Ġbetter": 4144,
      "cing": 4145,
      "éĺ³å¸Ĥ": 4146,
      "æī§æ³ķ": 4147,
      "å¼ºè°ĥ": 4148,
      "Ġpresent": 4149,
      "ç»ĵæŀĦ": 4150,
      "ä¿±ä¹Ĳ": 4151,
      "itc": 4152,
      "éħįåĲĪ": 4153,
      "Ġsal": 4154,
      "anks": 4155,
      "ç»ıåİĨ": 4156,
      "Ġfact": 4157,
      "éĿŀå¸¸çļĦ": 4158,
      "ission": 4159,
      "çļĦæĹ¶éĹ´": 4160,
      "ential": 4161,
      "vern": 4162,
      "éĵģè·¯": 4163,
      "ä¹ĭå¤ĸ": 4164,
      "Ġpract": 4165,
      "å®ĮåĸĦ": 4166,
      "å¯¹æīĭ": 4167,
      "ä¿±ä¹Ĳéĥ¨": 4168,
      "Ġwr": 4169,
      "Ġsomething": 4170,
      "Ġlarge": 4171,
      "ivid": 4172,
      "Ġeffect": 4173,
      "Ġdetail": 4174,
      "çī©èµĦ": 4175,
      "ç®±": 4176,
      "æī£": 4177,
      "çĻ»è®°": 4178,
      "å¿Ļ": 4179,
      "åĬłåħ¥": 4180,
      "ĠMy": 4181,
      "ified": 4182,
      "Ġput": 4183,
      "Ġmust": 4184,
      "ä¸»åĬ¨": 4185,
      "åĨľæ°ĳ": 4186,
      "Ġgr": 4187,
      "åıĳå±ķçļĦ": 4188,
      "Ġprot": 4189,
      "icle": 4190,
      "å§ĵ": 4191,
      "èĢĥçĶŁ": 4192,
      "èĭĹ": 4193,
      "37": 4194,
      "gin": 4195,
      "å½ĵä¸Ń": 4196,
      "æķ°éĩı": 4197,
      "è¯ģåĪ¸": 4198,
      "è¿ĳå¹´æĿ¥": 4199,
      "rol": 4200,
      "iday": 4201,
      "95": 4202,
      "ĠCar": 4203,
      "ann": 4204,
      "Ġchildren": 4205,
      "åķĨåĵģ": 4206,
      "åıĸæ¶Ī": 4207,
      "Ġinvest": 4208,
      "æ¼Ķåĳĺ": 4209,
      "å°ıç»Ħ": 4210,
      "æľºåľº": 4211,
      "Ġsing": 4212,
      "åį·": 4213,
      "æĪĳä»¬çļĦ": 4214,
      "çĶŁåĳ½": 4215,
      "éĺŁåıĭ": 4216,
      "ories": 4217,
      "åħ¨æĸ°": 4218,
      "Ġbeautiful": 4219,
      "ills": 4220,
      "ĠComm": 4221,
      "è¡Ĺéģĵ": 4222,
      "ĠThese": 4223,
      "æľĢå¤§çļĦ": 4224,
      "ä¹Łä¼ļ": 4225,
      "å°ıç¼ĸ": 4226,
      "æ¶Īéĺ²": 4227,
      "æľīäºĨ": 4228,
      "æĳ©": 4229,
      "ä¿Ŀè¯ģ": 4230,
      "åĲĦé¡¹": 4231,
      "ĠEng": 4232,
      "38": 4233,
      "Ġcommunity": 4234,
      "æĬµ": 4235,
      "çº¸": 4236,
      "uper": 4237,
      "tend": 4238,
      "Ġâ": 4239,
      "å¾®åįļ": 4240,
      "ĠDes": 4241,
      "åĩ¤": 4242,
      "åĭ¤": 4243,
      "ç¯ĩ": 4244,
      "ä½łçļĦ": 4245,
      "Ġbased": 4246,
      "èµ´": 4247,
      "è°ĵ": 4248,
      "äºĭæķħ": 4249,
      "ĠâĢĺ": 4250,
      "èī³": 4251,
      "olution": 4252,
      "ç¨ĭåº¦": 4253,
      "è¿¹": 4254,
      "é«ĺåº¦": 4255,
      "ĠNo": 4256,
      "34": 4257,
      "åĦ¿åŃĲ": 4258,
      "AN": 4259,
      "ĠChrist": 4260,
      "ature": 4261,
      "ç¹": 4262,
      "èįĲ": 4263,
      "lish": 4264,
      "Ġmaking": 4265,
      "fort": 4266,
      "ĠUniversity": 4267,
      "æĬ¥åĲį": 4268,
      "Ġcreate": 4269,
      "è·µ": 4270,
      "Ġhouse": 4271,
      "åĪĢ": 4272,
      "Ġrange": 4273,
      "æĹ¥ä¸ĭåįĪ": 4274,
      "æĹ¥æĻļ": 4275,
      "Ġpublic": 4276,
      "å¢Ļ": 4277,
      "Ġpast": 4278,
      "....": 4279,
      "æ¥ļ": 4280,
      "èŃ¦æĸ¹": 4281,
      "ï¼ĮãĢĬ": 4282,
      "ç¬¬åĽĽ": 4283,
      "å½ĵå¤©": 4284,
      "ised": 4285,
      "å¨±ä¹Ĳ": 4286,
      "éªĹ": 4287,
      "è§Ī": 4288,
      "æĭ³": 4289,
      "ids": 4290,
      "è¿ĩç¨ĭä¸Ń": 4291,
      "èĨ": 4292,
      "ä»¥åĲİ": 4293,
      "åĿ¦": 4294,
      "æĤ¨": 4295,
      "æ²»çĸĹ": 4296,
      "æ¹ĸåįĹ": 4297,
      "end": 4298,
      "ney": 4299,
      "æ£Ģå¯Ł": 4300,
      "èµĽäºĭ": 4301,
      "Ġmusic": 4302,
      "ration": 4303,
      "ump": 4304,
      "ç¹ģ": 4305,
      "Ġcheck": 4306,
      "åĲĮå¿Ĺ": 4307,
      "æį·": 4308,
      "illion": 4309,
      "å¹´åīį": 4310,
      "çĲĥè¿·": 4311,
      "âĢĺ": 4312,
      "æ¼«": 4313,
      "èªī": 4314,
      "fact": 4315,
      "Ġ30": 4316,
      "åĨħçļĦ": 4317,
      "æ®ĭ": 4318,
      "ä½ľèĢħ": 4319,
      "ush": 4320,
      "éĺµå®¹": 4321,
      "Ġincre": 4322,
      "ç¥ĸ": 4323,
      "äººæķ°": 4324,
      "Ġ/": 4325,
      "Ġsaf": 4326,
      "å³¡": 4327,
      "Ġaff": 4328,
      "æĽĿåħī": 4329,
      "part": 4330,
      "å°Ĩåľ¨": 4331,
      "çľŁæŃ£": 4332,
      "åįıè®®": 4333,
      "ĠTra": 4334,
      "èµĦäº§": 4335,
      "Ġfeatures": 4336,
      "å»ī": 4337,
      "min": 4338,
      "å¾Īæľī": 4339,
      "ï¼īãĢĤ": 4340,
      "çĩĥ": 4341,
      "ocus": 4342,
      "Ġca": 4343,
      "of": 4344,
      "çĹĽ": 4345,
      "Ġbuy": 4346,
      "Ġnight": 4347,
      "ands": 4348,
      "Ġsoft": 4349,
      "ift": 4350,
      "ç¥Ŀ": 4351,
      "Ġtest": 4352,
      "è®²è¯Ŀ": 4353,
      "å¤ĸè§Ĥ": 4354,
      "æĢª": 4355,
      "Ġgot": 4356,
      "èĶ¡": 4357,
      "æºª": 4358,
      "å¤ļä¸ª": 4359,
      "èĸª": 4360,
      "å»ºæĪĲ": 4361,
      "æ¨ª": 4362,
      "çļĦåıĳå±ķ": 4363,
      "å±Ģéķ¿": 4364,
      "æ²Ī": 4365,
      "ç»ıåħ¸": 4366,
      "éĢļæĬ¥": 4367,
      "ten": 4368,
      "Ġhist": 4369,
      "ertain": 4370,
      "ä¾ĿæĹ§": 4371,
      "Ġable": 4372,
      "ä¸įåı¯": 4373,
      "uro": 4374,
      "æĬķåħ¥": 4375,
      "ember": 4376,
      "æĪĺéĺŁ": 4377,
      "ĠRo": 4378,
      "æģĲ": 4379,
      "ird": 4380,
      "åıĳåĬ¨": 4381,
      "Ġsuccess": 4382,
      "ĠComp": 4383,
      "ä¾Ŀæ³ķ": 4384,
      "æĢ»ä¹¦è®°": 4385,
      "aterial": 4386,
      "éģį": 4387,
      "è²": 4388,
      "éļĨ": 4389,
      "çªģåĩº": 4390,
      "å·§": 4391,
      "å¯Ĵ": 4392,
      "çĮª": 4393,
      "ites": 4394,
      "ĠX": 4395,
      "éĶģ": 4396,
      "æķ´æĶ¹": 4397,
      "çĴ": 4398,
      "æĶ¹åıĺ": 4399,
      "Ġè®°èĢħ": 4400,
      "300": 4401,
      "2015": 4402,
      "Ġconst": 4403,
      "Ġ'": 4404,
      "çħ¤": 4405,
      "PP": 4406,
      "åĲįåįķ": 4407,
      "ä¸įçŁ¥éģĵ": 4408,
      "åĿĢ": 4409,
      "åı¯æĺ¯": 4410,
      "å¤§éĥ¨åĪĨ": 4411,
      "ask": 4412,
      "Ġanother": 4413,
      "æĹ¥èµ·": 4414,
      "48": 4415,
      "è¿Ĳè¾ĵ": 4416,
      "urs": 4417,
      "éĢĥ": 4418,
      "æĮĩæĮ¥": 4419,
      "ä¹¡æĿĳ": 4420,
      "é¡¿": 4421,
      "Ġhot": 4422,
      "åºĶæĢ¥": 4423,
      "å°±èĥ½": 4424,
      "è¹": 4425,
      "Ġlearn": 4426,
      "çĭĹ": 4427,
      "Ġpict": 4428,
      "å¤§éĩı": 4429,
      "Ġtoget": 4430,
      "å¿ł": 4431,
      "æ¬§æ´²": 4432,
      "æ§": 4433,
      "åĪĽå»º": 4434,
      "ä¼Ļä¼´": 4435,
      "ai": 4436,
      "æĸ¹æ³ķ": 4437,
      "Ġtogether": 4438,
      "èĿ": 4439,
      "åħ¨åĬĽ": 4440,
      "omen": 4441,
      "ä¼ĳéĹ²": 4442,
      "32": 4443,
      "åĮ»çĶŁ": 4444,
      "å¦Īå¦Ī": 4445,
      "Ġnear": 4446,
      "äººå¤§": 4447,
      "èĲ¥ä¸ļ": 4448,
      "æĭĨ": 4449,
      "ieve": 4450,
      "æİ¨èįĲ": 4451,
      "èĴĻåı¤": 4452,
      "æĭ¼": 4453,
      "Ġfav": 4454,
      "é«ĺçº§": 4455,
      "ï¼īãĢģ": 4456,
      "Ġask": 4457,
      "çļĦå½±åĵį": 4458,
      "è¡¡": 4459,
      "ĠEn": 4460,
      "å¿ĺ": 4461,
      "Ġcomes": 4462,
      "åīįæľŁ": 4463,
      "ä½łä»¬": 4464,
      "éĢŁåº¦": 4465,
      "æģĭ": 4466,
      "åħĪåĲİ": 4467,
      "pend": 4468,
      "åĩłä¸ª": 4469,
      "Ġcap": 4470,
      "çªģçł´": 4471,
      "OR": 4472,
      "ateg": 4473,
      "è¿Ĳè¡Į": 4474,
      "æĿľ": 4475,
      "Ġalong": 4476,
      "ç¦ıå»º": 4477,
      "åĿı": 4478,
      "é¢ľåĢ¼": 4479,
      "æĹ¥å¸¸": 4480,
      "æ¯ıä¸ª": 4481,
      "ä¸»ä¹ī": 4482,
      "ä¼ļåľ¨": 4483,
      "æī«": 4484,
      "ording": 4485,
      "Ġfour": 4486,
      "Ġce": 4487,
      "ged": 4488,
      "æļĹ": 4489,
      "æĭĽèģĺ": 4490,
      "å¢ŀå¼º": 4491,
      "æĮĳæĪĺ": 4492,
      "uck": 4493,
      "çºªå§Ķ": 4494,
      "Ġimpro": 4495,
      "å±ķçİ°": 4496,
      "éĤ®": 4497,
      "aring": 4498,
      "oci": 4499,
      "åħ¬åĽŃ": 4500,
      "éĤĢ": 4501,
      "oring": 4502,
      "55": 4503,
      "Ġactiv": 4504,
      "æ±¡æŁĵ": 4505,
      "æĲľ": 4506,
      "å¸ĤæĶ¿åºľ": 4507,
      "æ¯Ķä¾ĭ": 4508,
      "Ġseason": 4509,
      "Ġcontact": 4510,
      "éĩįè§Ĩ": 4511,
      "ries": 4512,
      "ãĢĤï¼Ī": 4513,
      "é¡ºåĪ©": 4514,
      "enn": 4515,
      "ĠOne": 4516,
      "Ġelect": 4517,
      "Ġbed": 4518,
      "äººå£«": 4519,
      "ĠServ": 4520,
      "Ġacross": 4521,
      "ec": 4522,
      "Ġnever": 4523,
      "åĬŀåħ¬å®¤": 4524,
      "ĠApp": 4525,
      "è¢Ń": 4526,
      "Ġprice": 4527,
      "AS": 4528,
      "æķ¬": 4529,
      "çĪĨåıĳ": 4530,
      "ä»ĸä»¬çļĦ": 4531,
      "ases": 4532,
      "Ġaddition": 4533,
      "èĢĮæĺ¯": 4534,
      "äººæ°ĳæĶ¿åºľ": 4535,
      "ĠChe": 4536,
      "Ġpersonal": 4537,
      "æĪ¿å±ĭ": 4538,
      "Ġindustry": 4539,
      "ç²®": 4540,
      "'re": 4541,
      "å¹¸ç¦ı": 4542,
      "æĸĩç«ł": 4543,
      "09": 4544,
      "ising": 4545,
      "æĪĳçľģ": 4546,
      "ĠFe": 4547,
      "iting": 4548,
      "åĬłå¤§": 4549,
      "åĪ¶å®ļ": 4550,
      "Ġlive": 4551,
      "åºĶå¯¹": 4552,
      "äººæ°ĳå¸ģ": 4553,
      "Ġopport": 4554,
      "Ġdra": 4555,
      "ane": 4556,
      "åĩºåı°": 4557,
      "Ġchang": 4558,
      "cent": 4559,
      "Ġ11": 4560,
      "çļĦä¸Ģä¸ª": 4561,
      "Ġmight": 4562,
      "æĹ¥èĩ³": 4563,
      "æ½ľ": 4564,
      "é©°": 4565,
      "Ġdev": 4566,
      "ĠAm": 4567,
      "çļĦæ¯ĶèµĽ": 4568,
      "æĪĲä¸ºäºĨ": 4569,
      "viron": 4570,
      "è¾½": 4571,
      "æľŁå¾ħ": 4572,
      "Ġmult": 4573,
      "Ġpos": 4574,
      "Ġcity": 4575,
      "Ġcourse": 4576,
      "éĤ£äºĽ": 4577,
      "Ġä¸º": 4578,
      "æķı": 4579,
      "ä¿Ĭ": 4580,
      "èµł": 4581,
      "æĬ¥è®°èĢħ": 4582,
      "å¤ļæ¬¡": 4583,
      "come": 4584,
      "åĽ´ç»ķ": 4585,
      "ĠMay": 4586,
      "ĠPlease": 4587,
      "aff": 4588,
      "åĲĮæ¯Ķå¢ŀéķ¿": 4589,
      "å¤©æ°Ķ": 4590,
      "itions": 4591,
      "Ġmembers": 4592,
      "æĸ°åĨłçĹħæ¯Ĵ": 4593,
      "af": 4594,
      "å¸Ĥéķ¿": 4595,
      "éĿĴå²Ľ": 4596,
      "Ġpack": 4597,
      "ç»ıçĲĨ": 4598,
      "ç¤¾äº¤": 4599,
      "Ġinstall": 4600,
      "æĮº": 4601,
      "lished": 4602,
      "Ġ2016": 4603,
      "atter": 4604,
      "ym": 4605,
      "åĲ¨": 4606,
      "æ¶īåıĬ": 4607,
      "Ġel": 4608,
      "éªĳ": 4609,
      "Ġconnect": 4610,
      "åľ£": 4611,
      "å®Įç¾İ": 4612,
      "ä»¤äºº": 4613,
      "ense": 4614,
      "ape": 4615,
      "åĽŀåºĶ": 4616,
      "æľīçĤ¹": 4617,
      "å¹³åĿĩ": 4618,
      "ä¸Ĭåİ»": 4619,
      "ä¸ºä¸»": 4620,
      "èĽĭ": 4621,
      "08": 4622,
      "ĠâĢĶ": 4623,
      "Ġfocus": 4624,
      "hether": 4625,
      "å¼ķåıĳ": 4626,
      "ä¹Ĵ": 4627,
      "ograph": 4628,
      "éķ¿æľŁ": 4629,
      "Ġvers": 4630,
      "65": 4631,
      "éĢĨ": 4632,
      "éĿ¢ä¸´": 4633,
      "å¹´çº§": 4634,
      "etwork": 4635,
      "åºĶçĶ¨": 4636,
      "åĲĦç±»": 4637,
      "é»ĺ": 4638,
      "æĮĩæķ°": 4639,
      "èĥľåĪ©": 4640,
      "æĸ°åĨłèĤºçĤİçĸ«æĥħ": 4641,
      "Ġtravel": 4642,
      "æł¡åĽŃ": 4643,
      "Ġä¸ŃåĽ½": 4644,
      "åĪĩå®ŀ": 4645,
      "Ġtool": 4646,
      "éĢıéľ²": 4647,
      "è¦ĨçĽĸ": 4648,
      "éĺ´": 4649,
      "39": 4650,
      "ç´«": 4651,
      "çĻ½èī²": 4652,
      "ä¹°æĪ¿": 4653,
      "Ġlo": 4654,
      "Ġdesigned": 4655,
      "ĠÂ": 4656,
      "Ġunt": 4657,
      "çķħ": 4658,
      "å®«": 4659,
      "Ġvideo": 4660,
      "Ġturn": 4661,
      "ä»ģ": 4662,
      "å®ĥçļĦ": 4663,
      "å¤Ħäºİ": 4664,
      "Ġwhy": 4665,
      "ization": 4666,
      "ç®Ģç§°": 4667,
      "uff": 4668,
      "åķĨåĬ¡": 4669,
      "åĩ¡": 4670,
      "ilt": 4671,
      "çŁ¿": 4672,
      "éº¦": 4673,
      "åĪ©æ¶¦": 4674,
      "Ġchange": 4675,
      "ĠNe": 4676,
      "æĺ¥èĬĤ": 4677,
      "ability": 4678,
      "æģ¶": 4679,
      "ĠFl": 4680,
      "åħ±äº«": 4681,
      "Ġplease": 4682,
      "åĵªäºĽ": 4683,
      "åĪļåĪļ": 4684,
      "Ġprovides": 4685,
      "Ġreview": 4686,
      "ĠIntern": 4687,
      "èĩªèº«": 4688,
      "Ġaway": 4689,
      "è´ŃæĪ¿": 4690,
      "æµĵ": 4691,
      "oice": 4692,
      "side": 4693,
      "å½ķåıĸ": 4694,
      "èĻļ": 4695,
      "Ġunderstand": 4696,
      "Ġtreat": 4697,
      "med": 4698,
      "Ġshort": 4699,
      "Ġtre": 4700,
      "Ġmaterial": 4701,
      "æĺĨ": 4702,
      "Ġresearch": 4703,
      "ĠThat": 4704,
      "Wh": 4705,
      "utes": 4706,
      "rop": 4707,
      "è¶ĭ": 4708,
      "åģ¿": 4709,
      "ä½©": 4710,
      "ism": 4711,
      "Ġdevelopment": 4712,
      "æĺ¥åŃ£": 4713,
      "Ġoften": 4714,
      "ç¼©": 4715,
      "è®¤è¯Ĩ": 4716,
      "ä¼¼ä¹İ": 4717,
      "ister": 4718,
      "å°±åı¯ä»¥": 4719,
      "åĬĽåº¦": 4720,
      "Ġcou": 4721,
      "éĽĨä½ĵ": 4722,
      "Ġsw": 4723,
      "Ġever": 4724,
      "è´«åĽ°æĪ·": 4725,
      "çľŁå®ŀ": 4726,
      "ç¾Ĭ": 4727,
      "çŁ¥åĲį": 4728,
      "ips": 4729,
      "æĮ¯": 4730,
      "è§Ĵèī²": 4731,
      "æł·çļĦ": 4732,
      "å²Ĺä½į": 4733,
      "èĢ³": 4734,
      "éķ¿æ²Ļ": 4735,
      "Ġeduc": 4736,
      "book": 4737,
      "%ï¼Ľ": 4738,
      "èģĮå·¥": 4739,
      "arent": 4740,
      "å®ı": 4741,
      "è§Ĥå¯Ł": 4742,
      "è¾Ľ": 4743,
      "pecial": 4744,
      "ç¾İä¸½": 4745,
      "ä¸ľè¥¿": 4746,
      "çº¢èī²": 4747,
      "å¤ļå°ĳ": 4748,
      "'ve": 4749,
      "å¯¹æŃ¤": 4750,
      "oose": 4751,
      "the": 4752,
      "å¸¸å§Ķ": 4753,
      "åŃ¦åĳĺ": 4754,
      "è¾ħåĬ©": 4755,
      "ĠSchool": 4756,
      "æ»¡è¶³": 4757,
      "mber": 4758,
      "hor": 4759,
      "ä¸ĵé¢ĺ": 4760,
      "éº»": 4761,
      "å¼ºçļĦ": 4762,
      "åİ¿å§Ķ": 4763,
      "veral": 4764,
      "çī¹æĸ¯": 4765,
      "æĪĲäº¤": 4766,
      "è¥¿è£ħ": 4767,
      "Ġstarted": 4768,
      "ä»ĬæĹ¥": 4769,
      "ç¼ĺ": 4770,
      "ger": 4771,
      "IC": 4772,
      "æĪĲæŀľ": 4773,
      "çĶĺèĤĥ": 4774,
      "è·ĥ": 4775,
      "by": 4776,
      "æĸ¤": 4777,
      "ĠæĳĦ": 4778,
      "ĠGu": 4779,
      "ĠCont": 4780,
      "éŃħ": 4781,
      "éĢĲæ¸Ĳ": 4782,
      ".,": 4783,
      "Ġlocated": 4784,
      "Ġless": 4785,
      "æµ·å¤ĸ": 4786,
      "Ġinclude": 4787,
      "Ġsum": 4788,
      "ript": 4789,
      "è¿İæĿ¥": 4790,
      "44": 4791,
      "æĴŀ": 4792,
      "ots": 4793,
      "ider": 4794,
      "æµ¦": 4795,
      "Ġindivid": 4796,
      "å½¢åĬ¿": 4797,
      "çĪ¶æ¯į": 4798,
      "å©Ĩ": 4799,
      "æ²³åįĹ": 4800,
      "Ġannoun": 4801,
      "èĴĤ": 4802,
      "è¡£æľį": 4803,
      "Ġshare": 4804,
      "Ġclean": 4805,
      "åħ¬ä¼Ĺ": 4806,
      "éĿĴæĺ¥": 4807,
      "æ´¾åĩº": 4808,
      "ç§įæ¤į": 4809,
      "çī¹åĪ«æĺ¯": 4810,
      "åıĺå¾Ĺ": 4811,
      "ĠMed": 4812,
      "è¯ģæĺİ": 4813,
      "éĻµ": 4814,
      "å¯¸": 4815,
      "çªģçĦ¶": 4816,
      "å½¹": 4817,
      "æ¡ĥ": 4818,
      "ency": 4819,
      "iam": 4820,
      "æĪĲæľ¬": 4821,
      "æĶ¯ä»ĺ": 4822,
      "å»¶æľŁ": 4823,
      "éĻįä½İ": 4824,
      "Ġlaw": 4825,
      "éĹª": 4826,
      "ä¸ĭäºĨ": 4827,
      "å½¢è±¡": 4828,
      "Ġemploy": 4829,
      "Ġorig": 4830,
      "ream": 4831,
      "æ¥¼å¸Ĥ": 4832,
      "ç»Ŀå¯¹": 4833,
      "çłĶåıĳ": 4834,
      "ä¼łæĴŃ": 4835,
      "Ġleg": 4836,
      "IN": 4837,
      "Ġprofessional": 4838,
      "åģļåĪ°": 4839,
      "çĲĨå¿µ": 4840,
      "Ġprint": 4841,
      "ä¸Ģåľº": 4842,
      "è®¨è®º": 4843,
      "Ġcomb": 4844,
      "è¿ĺåľ¨": 4845,
      "è¶³çĲĥ": 4846,
      "å¤©çļĦ": 4847,
      "Ġ100": 4848,
      "ä¸Ģä»¶": 4849,
      "Ġsol": 4850,
      "åŃķ": 4851,
      "è¾ĸ": 4852,
      "éĩįè¦ģçļĦ": 4853,
      "æĽ¿": 4854,
      "osed": 4855,
      "ived": 4856,
      "ä¸ĭéĿ¢": 4857,
      "ä¼ĺåĮĸ": 4858,
      "ĠYour": 4859,
      "ajor": 4860,
      "åĿ¡": 4861,
      "NBA": 4862,
      "éħ¸": 4863,
      "åī¯ä¹¦è®°": 4864,
      "Ġ,": 4865,
      "Ġcountry": 4866,
      "æĦıä¹ī": 4867,
      "Ġbecome": 4868,
      "éĺ²çĸ«": 4869,
      "åģ¶": 4870,
      "æİ¥è§¦": 4871,
      "ç½ĳè®¯": 4872,
      "éŁ³ä¹Ĳ": 4873,
      "åĽ½åĬ¡": 4874,
      "ify": 4875,
      "æĿŃå·ŀ": 4876,
      "å¼Ģå¹ķ": 4877,
      "å¹¶ä¸įæĺ¯": 4878,
      "ination": 4879,
      "'m": 4880,
      "Ġtechnology": 4881,
      "Ġå¼ł": 4882,
      "ĠæĿİ": 4883,
      "Ġunique": 4884,
      "ç´§æĢ¥": 4885,
      "Ġflo": 4886,
      "ç»ĻäºĪ": 4887,
      "Ġlink": 4888,
      "å¹¼åĦ¿": 4889,
      "åħ¬çĽĬ": 4890,
      "äº§çĶŁ": 4891,
      "äºĭå®ŀ": 4892,
      "é¢ľèī²": 4893,
      "å¤§åŀĭ": 4894,
      "Ġdem": 4895,
      "äºĨè§£åĪ°": 4896,
      "Ġtalk": 4897,
      "äº¿ç¾İåħĥ": 4898,
      "46": 4899,
      "Ġmain": 4900,
      "åľ¨è¿Ļ": 4901,
      "çĮ«": 4902,
      "åĬ²": 4903,
      "une": 4904,
      "Ġ16": 4905,
      "ĠBr": 4906,
      "rodu": 4907,
      "Ġpriv": 4908,
      "äº¤èŃ¦": 4909,
      "æĸ°è½¦": 4910,
      "èĤ©": 4911,
      "åįĹäº¬": 4912,
      "ç½Ĺæĸ¯": 4913,
      "ä¸Ģæ¬¾": 4914,
      "å°Ĩäºİ": 4915,
      "è¯ķçĤ¹": 4916,
      "Ġknown": 4917,
      "ä¿Ĺ": 4918,
      "å°ĳå¹´": 4919,
      "éĵº": 4920,
      "Ġprotect": 4921,
      "ĠCity": 4922,
      "ä¹Łå¾Ī": 4923,
      "Ġbeh": 4924,
      "ç§¦": 4925,
      "ĠCount": 4926,
      "ufact": 4927,
      "åħļçļĦåįģä¹Ŀå¤§": 4928,
      "æ¡Ĥ": 4929,
      "çĪ½": 4930,
      "åħ±æľī": 4931,
      "è½¬åŀĭ": 4932,
      "éĺ»": 4933,
      "ä»¥åīį": 4934,
      "é«ĺä¸Ń": 4935,
      "çĥ§": 4936,
      "Ġquick": 4937,
      "æ¸ł": 4938,
      "yn": 4939,
      "ç¦»å¼Ģ": 4940,
      "enef": 4941,
      "åħ¼": 4942,
      "å¾Ħ": 4943,
      "è¿ĺè¦ģ": 4944,
      "Ġuntil": 4945,
      "åĬĽçļĦ": 4946,
      "æ´ŀ": 4947,
      "Ġspace": 4948,
      "çĽ¾": 4949,
      "çī§": 4950,
      "Ġlat": 4951,
      "ä¸įå¾Ĺä¸į": 4952,
      "Ġmoney": 4953,
      "yl": 4954,
      "Ġterm": 4955,
      "èº«ä¸Ĭ": 4956,
      "æĸ°èĥ½æºĲ": 4957,
      "Ġupd": 4958,
      "ĠAss": 4959,
      "Ġste": 4960,
      "æĬ«": 4961,
      "EN": 4962,
      "2000": 4963,
      "bal": 4964,
      "anies": 4965,
      "Ġrele": 4966,
      "Ġnews": 4967,
      "æ³ª": 4968,
      "vironment": 4969,
      "ä¸ĢæĿ¡": 4970,
      "çº¹": 4971,
      "èĩªåĬ¨": 4972,
      "åĶ¯ä¸Ģ": 4973,
      "æ²ĥ": 4974,
      "å°Ĩä¼ļ": 4975,
      "ĠåĮĹäº¬": 4976,
      "itive": 4977,
      "Ġtem": 4978,
      "å°½ç®¡": 4979,
      "åĪ¶ä½ľ": 4980,
      "Ġword": 4981,
      "å¿ĥçļĦ": 4982,
      "èĪªç©º": 4983,
      "IG": 4984,
      "ä¸Ńå°ı": 4985,
      "raft": 4986,
      "åºŁ": 4987,
      "åįİç¤¾": 4988,
      "osp": 4989,
      "ä¸Ģè·¯": 4990,
      "éĻ·": 4991,
      "æ¶²": 4992,
      "opp": 4993,
      "ä¸įç®¡": 4994,
      "Ġpurch": 4995,
      "å®ŀè¡Į": 4996,
      "æĬ±": 4997,
      "æŁĶ": 4998,
      "Ġtimes": 4999,
      "å¥³å£«": 5000,
      "èĤĸæĪĺ": 5001,
      "Ġmakes": 5002,
      "AC": 5003,
      "åıĳåĬ¨æľº": 5004,
      "ç®Ĺæĺ¯": 5005,
      "åĦ¿ç«¥": 5006,
      "æĪĳæĺ¯": 5007,
      "æĹ¶åĪ»": 5008,
      "ret": 5009,
      "åĪĽéĢł": 5010,
      "oor": 5011,
      "irl": 5012,
      "åŃĲçļĦ": 5013,
      "éķ¿çļĦ": 5014,
      "æļĳ": 5015,
      "Ġwrit": 5016,
      "Ġseries": 5017,
      "atural": 5018,
      "éĻª": 5019,
      "åĲĦçº§": 5020,
      "å¸®æī¶": 5021,
      "Ġbring": 5022,
      "Ġtyp": 5023,
      "æĭĵ": 5024,
      "åĲĪæł¼": 5025,
      "ä¹Łåľ¨": 5026,
      "Ġlow": 5027,
      "itchen": 5028,
      "éĩįæĸ°": 5029,
      "æ¯ıå¹´": 5030,
      "å®ŀéªĮ": 5031,
      "hn": 5032,
      "æĭĽçĶŁ": 5033,
      "Ġseveral": 5034,
      "ä¼Ĺå¤ļ": 5035,
      "IS": 5036,
      "å¸¦çĿĢ": 5037,
      "æģĴå¤§": 5038,
      "è´¡çĮ®": 5039,
      "æ·»": 5040,
      "Ġsearch": 5041,
      "1000": 5042,
      "Ġhum": 5043,
      "çĵľ": 5044,
      "Ġæł¹æį®": 5045,
      "æľĢä½³": 5046,
      "çº½": 5047,
      "æī©å¤§": 5048,
      "çĽ®çļĦ": 5049,
      "ĠInst": 5050,
      "åıĳæĶ¾": 5051,
      "çĽ¸å¯¹": 5052,
      "ights": 5053,
      "èĭ¹": 5054,
      "è¿Ļä¸¤": 5055,
      "æĦıå¤§åĪ©": 5056,
      "St": 5057,
      "è®°å½ķ": 5058,
      "é©±": 5059,
      "çļĦæĸ¹å¼ı": 5060,
      "çģ°": 5061,
      "å¿Ĩ": 5062,
      "æĲº": 5063,
      "Ġpie": 5064,
      "Ġçİĭ": 5065,
      "Ġindividual": 5066,
      "åĩī": 5067,
      "çī¹æĸ¯æĭī": 5068,
      "lebr": 5069,
      "æ³¨åĨĮ": 5070,
      "Ġhaving": 5071,
      "ĠSte": 5072,
      "åĽ½åĬ¡éĻ¢": 5073,
      "åı¸æ³ķ": 5074,
      "æĦŁè°¢": 5075,
      "Ġmar": 5076,
      "nov": 5077,
      "Ġcamp": 5078,
      "unch": 5079,
      "åĨħèĴĻåı¤": 5080,
      "Ġcompet": 5081,
      "ention": 5082,
      "å±¥": 5083,
      "orld": 5084,
      "æ³Ľ": 5085,
      "Ġcover": 5086,
      "æĲ¬": 5087,
      "éĺ²æĬ¤": 5088,
      "èī¾": 5089,
      "Ġpossible": 5090,
      "è±Ĩ": 5091,
      "é¢ĸ": 5092,
      "éģĩåĪ°": 5093,
      "erence": 5094,
      "åįıè°ĥ": 5095,
      "å¯¹æĸ¹": 5096,
      "åĲĲ": 5097,
      "ç»ĦåĲĪ": 5098,
      "Ġline": 5099,
      "æĲŀ": 5100,
      "èĭ¹æŀľ": 5101,
      "sw": 5102,
      "Ġallow": 5103,
      "Ġsocial": 5104,
      "æļ¨": 5105,
      "76": 5106,
      "å¦Ĩ": 5107,
      "å¯¨": 5108,
      "Ġcustomers": 5109,
      "æīĵéĩİ": 5110,
      "æ·¡": 5111,
      "æµģè¡Į": 5112,
      "Ġmeans": 5113,
      "ĠOff": 5114,
      "Ġwind": 5115,
      "æĦıåĳ³": 5116,
      "IT": 5117,
      "åı¯çĪ±": 5118,
      "æ©": 5119,
      "æĸ¹ä¾¿": 5120,
      "ä¹¡éķĩ": 5121,
      "Ġaccount": 5122,
      "åŀĥ": 5123,
      "å¥½çľĭ": 5124,
      "çŃ¾çº¦": 5125,
      "æł¹æľ¬": 5126,
      "å¤§æĭĽ": 5127,
      "éħĴåºĹ": 5128,
      "OL": 5129,
      "ĠRep": 5130,
      "âĦ": 5131,
      "ably": 5132,
      "åľ¾": 5133,
      "åŀĥåľ¾": 5134,
      "æĺ¯åĽłä¸º": 5135,
      "Ġele": 5136,
      "Ġspecific": 5137,
      "Ġkind": 5138,
      "Ġdownload": 5139,
      "Ġfriend": 5140,
      "Ġ2020": 5141,
      "ç«ĭåį³": 5142,
      "Ġnon": 5143,
      "Ġoffic": 5144,
      "ners": 5145,
      "Ġä»Ĭå¹´": 5146,
      "çļĦæĦŁè§ī": 5147,
      "è½»æĿ¾": 5148,
      "anc": 5149,
      "æĦĪ": 5150,
      "çļĦå·¥ä½ľ": 5151,
      "Ġä¸įè¿ĩ": 5152,
      "aces": 5153,
      "ç»ĦæĪĲ": 5154,
      "ster": 5155,
      "Ġbas": 5156,
      "çĿ¡": 5157,
      "æ¹ĺ": 5158,
      "å¤§èµĽ": 5159,
      "Ġexpect": 5160,
      "07": 5161,
      "ä¼¯": 5162,
      "éĥ½çŁ¥éģĵ": 5163,
      "ready": 5164,
      "åİ¦": 5165,
      "çĶŁçī©": 5166,
      "æµĭè¯ķ": 5167,
      "å°Ĭ": 5168,
      "ones": 5169,
      "augh": 5170,
      "èĢĮè¨Ģ": 5171,
      "ĠãĢĲ": 5172,
      "Ġens": 5173,
      "å¥ı": 5174,
      "çĶ¨äºİ": 5175,
      "èĪ°": 5176,
      "ĠApr": 5177,
      "è¯´æĺİ": 5178,
      "ource": 5179,
      "ides": 5180,
      "æ®ĸ": 5181,
      "å®ŀè·µ": 5182,
      "åĴ¨": 5183,
      "Ġcalled": 5184,
      "ĠHere": 5185,
      "ä¼ı": 5186,
      "conom": 5187,
      "Ġlatest": 5188,
      "åĮ»åŃ¦": 5189,
      "ç¬¬ä¸Ģæ¬¡": 5190,
      "è¶ħçº§": 5191,
      "åįģè¶³": 5192,
      "ãĢĤâĢľ": 5193,
      "Ġside": 5194,
      "ä¸ĬåįĬå¹´": 5195,
      "å°ĳå¥³": 5196,
      "vious": 5197,
      "Ġ14": 5198,
      "Ġpopular": 5199,
      "èĥİ": 5200,
      "Ġbenef": 5201,
      "'ll": 5202,
      "åĩºè¡Į": 5203,
      "åŁİä¹¡": 5204,
      "æĶ¹åĸĦ": 5205,
      "åĽ½äº§": 5206,
      "å£®": 5207,
      "å¤§å¤ļæķ°": 5208,
      "Ġweb": 5209,
      "å«Įçĸĳ": 5210,
      "Ġwall": 5211,
      "AL": 5212,
      "æĴĳ": 5213,
      "Ġliving": 5214,
      "åĩºçĶŁ": 5215,
      "æĭ¿åĪ°": 5216,
      "Ġbuilding": 5217,
      "çļĦèĭ±éĽĦ": 5218,
      "è¯¾ç¨ĭ": 5219,
      "ç¬¬åįģ": 5220,
      "å·¥èµĦ": 5221,
      "Ġocc": 5222,
      "OS": 5223,
      "Ġbody": 5224,
      "Ġkey": 5225,
      "resh": 5226,
      "ex": 5227,
      "Ġmove": 5228,
      "åĳĪçİ°": 5229,
      "ID": 5230,
      "åĮºçļĦ": 5231,
      "æĻ¶": 5232,
      "atic": 5233,
      "Ġsize": 5234,
      "åī¯ä¸»ä»»": 5235,
      "ĠMin": 5236,
      "èĢĹ": 5237,
      "Ġleft": 5238,
      "Ġstyle": 5239,
      "è¿ĺèĥ½": 5240,
      "éħįç½®": 5241,
      "Ġfriends": 5242,
      "åİŁåĪĻ": 5243,
      "å¤§åŃ¦çĶŁ": 5244,
      "äºĳåįĹ": 5245,
      "Ġagainst": 5246,
      "ä¹łè¿ĳå¹³æĢ»ä¹¦è®°": 5247,
      "Ġstory": 5248,
      "ĠHigh": 5249,
      "Ġsimple": 5250,
      "åĴ¨è¯¢": 5251,
      "åı¯ä»¥è¯´æĺ¯": 5252,
      "47": 5253,
      "è½¦èº«": 5254,
      "Ġwalk": 5255,
      "è²Į": 5256,
      "èĢĥå¯Ł": 5257,
      "æµİåįĹ": 5258,
      "Ġemail": 5259,
      "æ¢°": 5260,
      "Ġmajor": 5261,
      "æĶ»åĩ»": 5262,
      "è°ĭ": 5263,
      "49": 5264,
      "å¤§å¹ħ": 5265,
      "Ġfollowing": 5266,
      "æľĪåºķ": 5267,
      "æľīæīĢ": 5268,
      "ä¸Ģå¤©": 5269,
      "AD": 5270,
      "æĬ¥è®¯": 5271,
      "é»İ": 5272,
      "è¿Ī": 5273,
      "Ġrequire": 5274,
      "åħĪè¿Ľ": 5275,
      "åħ¨ä½ĵ": 5276,
      "æµ·åįĹ": 5277,
      "alf": 5278,
      "éĥ¨éķ¿": 5279,
      "unic": 5280,
      "ĠSouth": 5281,
      "æĭľ": 5282,
      "éī": 5283,
      "ä¸ļç»©": 5284,
      "æ¢¯": 5285,
      "çĤ¸": 5286,
      "éī´": 5287,
      "Ġes": 5288,
      "æķĻç»ĥ": 5289,
      "èµı": 5290,
      "éħ·": 5291,
      "err": 5292,
      "Ġx": 5293,
      "ç§ĳæ¯Ķ": 5294,
      "ä»ĸåľ¨": 5295,
      "æĹ¦": 5296,
      "Ġwond": 5297,
      "Ġmil": 5298,
      "åĩŃåĢŁ": 5299,
      "èĪį": 5300,
      "é«ĺä¸ī": 5301,
      "Ġprep": 5302,
      "æī®": 5303,
      "å¾Īå¤§": 5304,
      "Ġhost": 5305,
      "Ġrecord": 5306,
      "orts": 5307,
      "è©": 5308,
      "èŀįåĲĪ": 5309,
      "ä¹Łå°±æĺ¯": 5310,
      "è½¨": 5311,
      "åŁ¹åħ»": 5312,
      "çļĦå¥½": 5313,
      "èķ": 5314,
      "ĠAfter": 5315,
      "vernment": 5316,
      "çī¢": 5317,
      "Ġpot": 5318,
      "æĢ»ä½ĵ": 5319,
      "è´¹çĶ¨": 5320,
      "ĠæĿ¥æºĲ": 5321,
      "ux": 5322,
      "åİī": 5323,
      "éŁ¦": 5324,
      "è¿«": 5325,
      "äºĭé¡¹": 5326,
      "çļĦäºĭæĥħ": 5327,
      "åĲįåŃĹ": 5328,
      "åĪĻæĺ¯": 5329,
      "äº¦": 5330,
      "é¹ı": 5331,
      "åĽĽä¸ª": 5332,
      "çĨĬ": 5333,
      "Ġchall": 5334,
      "å¸¦é¢Ĩ": 5335,
      "å¼ķå¯¼": 5336,
      "Ġgetting": 5337,
      "çļĦåĲĮæĹ¶": 5338,
      "Ġcut": 5339,
      "Ġcase": 5340,
      "Ġdeal": 5341,
      "åıįæĺł": 5342,
      "äºİæĺ¯": 5343,
      "most": 5344,
      "ä¸įè¶³": 5345,
      "è¯¦ç»Ĩ": 5346,
      "gest": 5347,
      "å¹´é¾Ħ": 5348,
      "68": 5349,
      "Ġhours": 5350,
      "å¸ĥå±Ģ": 5351,
      "Ġcompanies": 5352,
      "åĨĴ": 5353,
      "æĦıåĳ³çĿĢ": 5354,
      "ĠBo": 5355,
      "ç§»åĬ¨": 5356,
      "ä¸įéĶĻçļĦ": 5357,
      "ĠNorth": 5358,
      "Ġheart": 5359,
      "lex": 5360,
      "åįİä¸º": 5361,
      "RE": 5362,
      "urance": 5363,
      "å¾·åĽ½": 5364,
      "ural": 5365,
      "ĠEuro": 5366,
      "wards": 5367,
      "å¹¿åľº": 5368,
      "ĠAust": 5369,
      "è¡¥è´´": 5370,
      "rap": 5371,
      "urity": 5372,
      "æĩĤ": 5373,
      "çĨŁæĤī": 5374,
      "astic": 5375,
      "æĺ¨å¤©": 5376,
      "irt": 5377,
      "iven": 5378,
      "éĻĦè¿ĳ": 5379,
      "å®¶äºº": 5380,
      "åīįå¾Ģ": 5381,
      "çļĦæĥħåĨµä¸ĭ": 5382,
      "ĠPark": 5383,
      "çĲĨè§£": 5384,
      "å¥³æĢ§": 5385,
      "Ġexperien": 5386,
      "Ġalready": 5387,
      "è®¡ç®Ĺ": 5388,
      "æĭĴ": 5389,
      "Ġyoung": 5390,
      "åħħæ»¡": 5391,
      "å¤§æ°Ķ": 5392,
      "olutions": 5393,
      "åĲİæĿ¥": 5394,
      "Ġjob": 5395,
      "è¡¬è¡«": 5396,
      "ilities": 5397,
      "éĺŁçļĦ": 5398,
      "Ġcomplet": 5399,
      "åĪ©çİĩ": 5400,
      "çīµ": 5401,
      "ĠAmerican": 5402,
      "è½¿": 5403,
      "éĩĳé¢Ŀ": 5404,
      "Ġago": 5405,
      "èµĦæľ¬": 5406,
      "Ġcomplete": 5407,
      "èĢĮåľ¨": 5408,
      "aker": 5409,
      "èĩ³ä»Ĭ": 5410,
      "ille": 5411,
      "æľ¬èµĽåŃ£": 5412,
      "å¤§åĬĽ": 5413,
      "58": 5414,
      "ç»´æĬ¤": 5415,
      "è©¹": 5416,
      "cle": 5417,
      "å²³": 5418,
      "ç²¾èĩ´": 5419,
      "è¯¸": 5420,
      "ched": 5421,
      "åķ¦": 5422,
      "çºł": 5423,
      "æĬķæłĩ": 5424,
      "Ġproperty": 5425,
      "lege": 5426,
      "ç¥¥": 5427,
      "æ²¡æĥ³åĪ°": 5428,
      "æĦıå¤ĸ": 5429,
      "å¤ĸå¥Ĺ": 5430,
      "ä¸Ģä½ĵ": 5431,
      "Ġfield": 5432,
      "éĿ¢è¯ķ": 5433,
      "Ġcontrol": 5434,
      "å°Ħæīĭ": 5435,
      "Ġhold": 5436,
      "æŃ¦åĻ¨": 5437,
      "idd": 5438,
      "illed": 5439,
      "ĠQu": 5440,
      "æµ©": 5441,
      "ç¨¿": 5442,
      "ä¸»æĴŃ": 5443,
      "åħ¬ç¤º": 5444,
      "æ¼Ĥ": 5445,
      "Ġ24": 5446,
      "çĺ¦": 5447,
      "æ·±åĮĸ": 5448,
      "çĿ£æŁ¥": 5449,
      "ä¼ĺæĥł": 5450,
      "ĠGra": 5451,
      "åĸĿ": 5452,
      "åī©": 5453,
      "Ġ17": 5454,
      "æķ°åŃĹ": 5455,
      "åħļç»Ħ": 5456,
      "èµļ": 5457,
      "ä¸»ä½ĵ": 5458,
      "åĳ¨è¾¹": 5459,
      "å¥¥è¿Ĳä¼ļ": 5460,
      "éĻĨç»Ń": 5461,
      "åĽŀå®¶": 5462,
      "Ġclo": 5463,
      "Ġfund": 5464,
      "ä»¥ä¸º": 5465,
      "æĭįæĳĦ": 5466,
      "Ġbrand": 5467,
      "Ġå¯¹äºİ": 5468,
      "çļĦä¸Ń": 5469,
      "Ġfore": 5470,
      "èĤ¡ä¸ľ": 5471,
      "ä½ıå®ħ": 5472,
      "æĹ¬": 5473,
      "ç©¿çĿĢ": 5474,
      "æĮ¡": 5475,
      "Ġdiscuss": 5476,
      "å¸Ŀ": 5477,
      "ĠIm": 5478,
      "irm": 5479,
      "hers": 5480,
      "ĠCal": 5481,
      "Ġstudy": 5482,
      "ental": 5483,
      "çıį": 5484,
      "elcome": 5485,
      "èµ°è¿Ľ": 5486,
      "æĪ¿äº§": 5487,
      "Ġ25": 5488,
      "Ġselect": 5489,
      "å¢¨": 5490,
      "çī¹çĤ¹": 5491,
      "äº«åıĹ": 5492,
      "Ġoffice": 5493,
      "æİ¢ç´¢": 5494,
      "Ġworks": 5495,
      "66": 5496,
      "çĤī": 5497,
      "vert": 5498,
      "å¤§éĺŁ": 5499,
      "æ¯įäº²": 5500,
      "åĨ²åĩ»": 5501,
      "å²Ń": 5502,
      "æľīå¤ļ": 5503,
      "ä¸ĭè·Į": 5504,
      "Ġhol": 5505,
      "ĠUnited": 5506,
      "Ġhom": 5507,
      "tt": 5508,
      "Ġquestions": 5509,
      "çľĭæĿ¥": 5510,
      "éĻĲåĪ¶": 5511,
      "uture": 5512,
      "çīĽä»Ķ": 5513,
      "æ£®æŀĹ": 5514,
      "éģ¿åħį": 5515,
      "é«ĺéĵģ": 5516,
      "Ġmen": 5517,
      "ä¸įäºĨ": 5518,
      "Ġbegin": 5519,
      "çľĭä¸Ĭåİ»": 5520,
      "å¸½": 5521,
      "çķª": 5522,
      "ãĢĭãĢģ": 5523,
      "ball": 5524,
      "æ¶µ": 5525,
      "ä¸įåĲĮçļĦ": 5526,
      "ä¸¾æİª": 5527,
      "Ġclick": 5528,
      "é»Ħéĩĳ": 5529,
      "ribut": 5530,
      "åĩłå¹´": 5531,
      "Ġmanufact": 5532,
      "æĥ¯": 5533,
      "Ġhig": 5534,
      "Ġincludes": 5535,
      "ĠPre": 5536,
      "Ġearly": 5537,
      "åĩºåı£": 5538,
      "Ġcelebr": 5539,
      "Ġcolor": 5540,
      "æĻºæħ§": 5541,
      "elling": 5542,
      "è®©æĪĳä»¬": 5543,
      "åħ»èĢģ": 5544,
      "å¨ĺ": 5545,
      "Ġthing": 5546,
      "éĢļéģĵ": 5547,
      "èŀįèµĦ": 5548,
      "å¯¹è±¡": 5549,
      "Ġcreated": 5550,
      "çľŁçļĦæĺ¯": 5551,
      "Ġmaint": 5552,
      "Ġdone": 5553,
      "ä¿Ħç½Ĺæĸ¯": 5554,
      "è¾ĵåĩº": 5555,
      "åħ¨åİ¿": 5556,
      "Ġstep": 5557,
      "å±ķå¼Ģ": 5558,
      "ç²¾å½©": 5559,
      "for": 5560,
      "Ġdig": 5561,
      "Ġmonths": 5562,
      "æĭħå¿ĥ": 5563,
      "å¥³åŃĲ": 5564,
      "aby": 5565,
      "It": 5566,
      "ä¾µ": 5567,
      "è®¾ç½®": 5568,
      "ĠApril": 5569,
      "Ġenvironment": 5570,
      "Ġmoder": 5571,
      "åħ·å¤ĩ": 5572,
      "è¯Ħä»·": 5573,
      "ĠDis": 5574,
      "åį³ä½¿": 5575,
      "çĶ¨åľ°": 5576,
      "ancial": 5577,
      "Ġfavor": 5578,
      "å±ħä½ı": 5579,
      "è¡¨æ¼Ķ": 5580,
      "çĪ¶äº²": 5581,
      "Ġinsp": 5582,
      "85": 5583,
      "Ġdr": 5584,
      "ä½ľä¸ļ": 5585,
      "gr": 5586,
      "æ¶¯": 5587,
      "å·¥åİĤ": 5588,
      "éĺŁåĳĺ": 5589,
      "AM": 5590,
      "Ġcomfort": 5591,
      "å°Ŀ": 5592,
      "çİ°åľ¨çļĦ": 5593,
      "å¹»": 5594,
      "Ġmind": 5595,
      "æ°Ľ": 5596,
      "ç¾½": 5597,
      "å¾Īéļ¾": 5598,
      "çĪ·": 5599,
      "Ġvarious": 5600,
      "æīĢåľ¨": 5601,
      "Ġcurrently": 5602,
      "ä¹Łåı¯ä»¥": 5603,
      "æĦŁåĪ°": 5604,
      "åĩºçİ°äºĨ": 5605,
      "Ġwa": 5606,
      "æľŁçļĦ": 5607,
      "ä¼ĺéĽħ": 5608,
      "æĹģ": 5609,
      "å¼Ģå·¥": 5610,
      "å®ļä½į": 5611,
      "åĽŃåĮº": 5612,
      "Ġä½ľä¸º": 5613,
      "Ġ2015": 5614,
      "Ġaddress": 5615,
      "çİ°å®ŀ": 5616,
      "åħĥç´ł": 5617,
      "ruction": 5618,
      "çļĦæ¶Īæģ¯": 5619,
      "åīĤ": 5620,
      "å¿ĹæĦ¿èĢħ": 5621,
      "oll": 5622,
      "96": 5623,
      "go": 5624,
      "mend": 5625,
      "éŃħåĬĽ": 5626,
      "ä»£çĲĨ": 5627,
      "--------": 5628,
      "å®īåħ¨çĶŁäº§": 5629,
      "Ph": 5630,
      "ä¼ļæľī": 5631,
      "ç©ºæ°Ķ": 5632,
      "Ġtour": 5633,
      "æ·ĺ": 5634,
      "Ġport": 5635,
      "æıŃ": 5636,
      "å§ĭç»Ī": 5637,
      "ĠInc": 5638,
      "place": 5639,
      "Ġvol": 5640,
      "éĥ½èĥ½": 5641,
      "éĶħ": 5642,
      "Ġsingle": 5643,
      "çĮĽ": 5644,
      "éĺħè¯»": 5645,
      "æľįè£ħ": 5646,
      "è¥¿éĥ¨": 5647,
      "éĤĢè¯·": 5648,
      "å®ŀåľ¨": 5649,
      "å¹¼åĦ¿åĽŃ": 5650,
      "Ġlim": 5651,
      "æĪĸè®¸": 5652,
      "ä¸Ģå®ļè¦ģ": 5653,
      "Ġtraining": 5654,
      "äºı": 5655,
      "pos": 5656,
      "æĹłäºº": 5657,
      "æĭħä»»": 5658,
      "ä»įçĦ¶": 5659,
      "åĬ¨çī©": 5660,
      "èĢĲ": 5661,
      "å°±æľī": 5662,
      "duct": 5663,
      "å¼Ĺ": 5664,
      "æľĢä½İ": 5665,
      "è¥¿çıŃ": 5666,
      "Ġglo": 5667,
      "åĲįç§°": 5668,
      "ww": 5669,
      "åİŁæĿ¥": 5670,
      "çĻ¾å§ĵ": 5671,
      "æķĳæı´": 5672,
      "è¥¿çıŃçīĻ": 5673,
      "æĶ¯éĥ¨": 5674,
      "èĩ³å°ĳ": 5675,
      "rew": 5676,
      "Ġbit": 5677,
      "aur": 5678,
      "è£ħä¿®": 5679,
      "ç¢İ": 5680,
      "ĠSu": 5681,
      "çŃīæĸ¹éĿ¢": 5682,
      "now": 5683,
      "æľīåºı": 5684,
      "isk": 5685,
      "ony": 5686,
      "ç»ĨèĬĤ": 5687,
      "çī©ä¸ļ": 5688,
      "çľŁæĺ¯": 5689,
      "ung": 5690,
      "Ġyet": 5691,
      "åħ½": 5692,
      "Ġfront": 5693,
      "æĦŁåıĹ": 5694,
      "Ġz": 5695,
      "ĠHowever": 5696,
      "42": 5697,
      "ĠBro": 5698,
      "æī¾åĪ°": 5699,
      "ä½ĵçİ°": 5700,
      "cript": 5701,
      "éĿ¢çļĦ": 5702,
      "çĶµåķĨ": 5703,
      "åħ»æ®ĸ": 5704,
      "çĽĳæµĭ": 5705,
      "ç»Ļå¤§å®¶": 5706,
      "æķ°æį®æĺ¾ç¤º": 5707,
      "åĲįçļĦ": 5708,
      "æĮĸ": 5709,
      "åįģåħ«": 5710,
      "Ġwide": 5711,
      "ä¸»åĬŀ": 5712,
      "è¾½å®ģ": 5713,
      "Ġanal": 5714,
      "åĩłå¤©": 5715,
      "ances": 5716,
      "äºķ": 5717,
      "Ġmag": 5718,
      "Ġengine": 5719,
      "çļĦçĥŃ": 5720,
      "ĠJan": 5721,
      "ibr": 5722,
      "ä¸¾æĬ¥": 5723,
      "ĠPer": 5724,
      "Ġ#": 5725,
      "è¿Ļä»¶": 5726,
      "å¦Ĥä¸ĭ": 5727,
      "LPL": 5728,
      "pro": 5729,
      "çĽĹ": 5730,
      "Ġclients": 5731,
      "åģ·": 5732,
      "Ġinvol": 5733,
      "åıĳè¡¨": 5734,
      "son": 5735,
      "Ġcard": 5736,
      "ample": 5737,
      "å¨ĥ": 5738,
      "Ġminutes": 5739,
      "çļĦåīį": 5740,
      "éľį": 5741,
      "77": 5742,
      "ĠSm": 5743,
      "åį°è±¡": 5744,
      "åĲķ": 5745,
      "æ´¾åĩºæīĢ": 5746,
      "resent": 5747,
      "ĠYork": 5748,
      "Ġmanagement": 5749,
      "Ġothers": 5750,
      "ä¸°çĶ°": 5751,
      "Ġblog": 5752,
      "RNG": 5753,
      "ches": 5754,
      "fer": 5755,
      "Ġevents": 5756,
      "çļĦå¿ĥ": 5757,
      "ocu": 5758,
      "OM": 5759,
      "å·´èĲ¨": 5760,
      "ĠJohn": 5761,
      "ĠNational": 5762,
      "é¢ĨåħĪ": 5763,
      "åĽŀåĪ°": 5764,
      "azing": 5765,
      "urch": 5766,
      "li": 5767,
      "aim": 5768,
      "play": 5769,
      "ä¾¦": 5770,
      "éĻ¢æł¡": 5771,
      "è¡£è£Ļ": 5772,
      "2014": 5773,
      "ä¸įåĨį": 5774,
      "å¹´åºķ": 5775,
      "ĠBu": 5776,
      "å°±è¦ģ": 5777,
      "å°ĸ": 5778,
      "Ġtrack": 5779,
      "åĽłç´ł": 5780,
      "éĤ£ä¸ª": 5781,
      "æĳĺ": 5782,
      "Ġmillion": 5783,
      "Ġvalue": 5784,
      "ä¹Łæ²¡æľī": 5785,
      "ä¹Łèĥ½": 5786,
      "åĲĪçĲĨ": 5787,
      "ĠWorld": 5788,
      "çĬ¶åĨµ": 5789,
      "abor": 5790,
      "æ¶Ľ": 5791,
      "ãĢĭãĢĤ": 5792,
      "Ġperformance": 5793,
      "çĸ«æĥħå½±åĵį": 5794,
      "è±ªåįİ": 5795,
      "ĠNot": 5796,
      "Ġmom": 5797,
      "Ġimage": 5798,
      "ĠäºĮ": 5799,
      "çĶµæ±ł": 5800,
      "æĹ¥åľ¨": 5801,
      "æİ¨è¿Ł": 5802,
      "ino": 5803,
      "asing": 5804,
      "Ġbreak": 5805,
      "Ġbar": 5806,
      "åİŁæľ¬": 5807,
      "US": 5808,
      "ources": 5809,
      "åľ¨ä¸Ģèµ·": 5810,
      "å·¥åķĨ": 5811,
      "çİ°è±¡": 5812,
      "æ°ĳçĶŁ": 5813,
      "Ġexpl": 5814,
      "å¦»åŃĲ": 5815,
      "Ġey": 5816,
      "æ·±åĪ»": 5817,
      "èĤ¡ä»½æľīéĻĲåħ¬åı¸": 5818,
      "Ġwhite": 5819,
      "Ġener": 5820,
      "roll": 5821,
      "æĤ¬": 5822,
      "ĠPart": 5823,
      "ĠNow": 5824,
      "åĮĹäº¬å¸Ĥ": 5825,
      "ges": 5826,
      "çļĦåľ°æĸ¹": 5827,
      "çİ¯èĬĤ": 5828,
      "ĠDay": 5829,
      "Ġeverything": 5830,
      "çŃīçŃī": 5831,
      "97": 5832,
      "Ġ50": 5833,
      "umb": 5834,
      "å¼ºåĬ¿": 5835,
      "Ġnetwork": 5836,
      "ians": 5837,
      "Ġcomput": 5838,
      "Ġtable": 5839,
      "æĪĲéķ¿": 5840,
      "èĥĮæĻ¯": 5841,
      "åŃĶ": 5842,
      "çĶµè§Ĩåī§": 5843,
      "ï½": 5844,
      "ained": 5845,
      "ç¡ķ": 5846,
      "ided": 5847,
      "çĿĽ": 5848,
      "Ġsit": 5849,
      "Ġnatural": 5850,
      "æľ¬èº«": 5851,
      "å°º": 5852,
      "åıĳå¸ĥä¼ļ": 5853,
      "åı¦ä¸Ģ": 5854,
      "ĠFrom": 5855,
      "Ġmean": 5856,
      "æķĻæİĪ": 5857,
      "æīĵåĩ»": 5858,
      "æįĲèµł": 5859,
      "å¥³çĶŁ": 5860,
      "åĬ©åĬĽ": 5861,
      "å±±ä¸ľçľģ": 5862,
      "ä¹ĭä¸ĭ": 5863,
      "æįŁå¤±": 5864,
      "Ġmot": 5865,
      "Ġcommon": 5866,
      "æĶ¿åįı": 5867,
      "41": 5868,
      "Ġess": 5869,
      "che": 5870,
      "åĶ®ä»·": 5871,
      "Ġmedia": 5872,
      "å¯¿": 5873,
      "å§ĳ": 5874,
      "èĩªä¸»": 5875,
      "ĠGo": 5876,
      "å¤ļå¹´": 5877,
      "è®ºåĿĽ": 5878,
      "ĠState": 5879,
      "è°£": 5880,
      "æķĻèĤ²éĥ¨": 5881,
      "æŁ³": 5882,
      "ç¬¬ä¸Ģä¸ª": 5883,
      "é¬": 5884,
      "Ġstaff": 5885,
      "æĨ": 5886,
      "æĺ¯æľĢ": 5887,
      "ume": 5888,
      "æłĩå¿Ĺ": 5889,
      "å«Įçĸĳäºº": 5890,
      "ethod": 5891,
      "Ġareas": 5892,
      "Ġfar": 5893,
      "å¥³åŃ©": 5894,
      "ĠEurope": 5895,
      "Ġ13": 5896,
      "ring": 5897,
      "é¼ĵåĬ±": 5898,
      "åħļå»º": 5899,
      "åħ¬äº¤": 5900,
      "ãĢĭãĢĬ": 5901,
      "åľ°åĿĹ": 5902,
      "å¡«": 5903,
      "èį¯åĵģ": 5904,
      "è¿ŀè¡£è£Ļ": 5905,
      "ç£Ĭ": 5906,
      "Ġthought": 5907,
      "Ġflow": 5908,
      "å¹³æĹ¶": 5909,
      "Ġtook": 5910,
      "Ġet": 5911,
      "Ġideas": 5912,
      "åı¯èĥ½ä¼ļ": 5913,
      "Ġpar": 5914,
      "arning": 5915,
      "æİ¨å¹¿": 5916,
      "äººçī©": 5917,
      "è¿Ŀè§Ħ": 5918,
      "é¹¿": 5919,
      "èħĲ": 5920,
      "Ġsuper": 5921,
      "çĪ±å¿ĥ": 5922,
      "éĤĵ": 5923,
      "åıĳè¨Ģ": 5924,
      "ĠDr": 5925,
      "Ġsound": 5926,
      "rict": 5927,
      "aps": 5928,
      "Ġpick": 5929,
      "å¸¦åĬ¨": 5930,
      "çī©æµģ": 5931,
      "Ġcollect": 5932,
      "Ġcharact": 5933,
      "Ġstay": 5934,
      "åĮ»èį¯": 5935,
      "ĠCounty": 5936,
      "ĠPol": 5937,
      "Ġwomen": 5938,
      "çľĭçĿĢ": 5939,
      "åħ±äº§": 5940,
      "è¶ĭåĬ¿": 5941,
      "ä¸įçĶ¨": 5942,
      "éļĲæĤ£": 5943,
      "åľ¨ä¸ŃåĽ½": 5944,
      "Ġhistory": 5945,
      "ĠDesign": 5946,
      "ET": 5947,
      "çļĦå°±æĺ¯": 5948,
      "Ġstrong": 5949,
      "ĠStud": 5950,
      "imate": 5951,
      "æĽ´å¤ļçļĦ": 5952,
      "Ġrecently": 5953,
      "çĶŁæ¶¯": 5954,
      "æĽ¼èģĶ": 5955,
      "ç¢°": 5956,
      "æ³¥": 5957,
      "ä¸īå¤§": 5958,
      "sel": 5959,
      "Ġenough": 5960,
      "ledge": 5961,
      "Ġmess": 5962,
      "åıĳè¡Į": 5963,
      "åĿĬ": 5964,
      "å¹¿æ³Ľ": 5965,
      "ç¨ĭåºı": 5966,
      "oon": 5967,
      "Ġä½Ĩ": 5968,
      "è¾ŀ": 5969,
      "ç¡®è®¤": 5970,
      "ä¸Ģèµ·æĿ¥": 5971,
      "éĶ¡": 5972,
      "åħ¸åŀĭ": 5973,
      "Ġcame": 5974,
      "Ġvariety": 5975,
      "è¿Ļä¸ªèĭ±éĽĦ": 5976,
      "Ġlog": 5977,
      "Ġä»Ĭå¤©": 5978,
      "åĨħéĥ¨": 5979,
      "æĹłçĸĳ": 5980,
      "çŀ¬": 5981,
      "ä»ĵ": 5982,
      "Ġcult": 5983,
      "Ġblack": 5984,
      "Ġwood": 5985,
      "ä¼ĺè´¨": 5986,
      "ored": 5987,
      "é«ĺç«¯": 5988,
      "é¡µ": 5989,
      "åŁĥ": 5990,
      "Ġtype": 5991,
      "çº§åĪ«": 5992,
      "çľģæĶ¿åºľ": 5993,
      "åĩĮæĻ¨": 5994,
      "çĭ¬çī¹": 5995,
      "è®¾ç«ĭ": 5996,
      "æĭĸ": 5997,
      "ests": 5998,
      "ply": 5999,
      "ä¸įå¥½": 6000,
      "Ġ>": 6001,
      "èī¯å¥½": 6002,
      "56": 6003,
      "çĤ¼": 6004,
      "Ġreturn": 6005,
      "ç¬¬äºĶ": 6006,
      "å°±åĥı": 6007,
      "itch": 6008,
      "éĴ»": 6009,
      "ä¸Ĭä¸ĭ": 6010,
      "å½ĵå¹´": 6011,
      "inc": 6012,
      "åį¢": 6013,
      "å®Ŀé©¬": 6014,
      "çºªå½ķ": 6015,
      "Ġage": 6016,
      "coming": 6017,
      "ops": 6018,
      "åĽŀå½Ĵ": 6019,
      "æ¸łéģĵ": 6020,
      "å®¶éĩĮ": 6021,
      "å¤Ħç½ļ": 6022,
      "43": 6023,
      "crib": 6024,
      "ĠçĽ®åīį": 6025,
      "Ġfit": 6026,
      "Ġrespons": 6027,
      "è´¾": 6028,
      "è®°èĢħä»İ": 6029,
      "å¸¸å§Ķä¼ļ": 6030,
      "å¼ķèµ·": 6031,
      "aken": 6032,
      "çļĦåŃ¦çĶŁ": 6033,
      "OT": 6034,
      "ĠBar": 6035,
      "Ġmanag": 6036,
      "ä¸ľäº¬": 6037,
      "çļĦçİ©å®¶": 6038,
      "æ§½": 6039,
      "èĬ³": 6040,
      "Ġproblem": 6041,
      "ä¸ĸçºª": 6042,
      "nes": 6043,
      "éĦ": 6044,
      "æ¼ĶçļĦ": 6045,
      "è½¦ä¸»": 6046,
      "Ġfuture": 6047,
      "åĲĪèĤ¥": 6048,
      "å¾Īå¥½": 6049,
      "unities": 6050,
      "åľ°éľĩ": 6051,
      "Ġcollection": 6052,
      "78": 6053,
      "åľ°çĤ¹": 6054,
      "æľīå¾Īå¤ļ": 6055,
      "æŁĲæŁĲ": 6056,
      "Ġmach": 6057,
      "å§Ĩæĸ¯": 6058,
      "Ġimprove": 6059,
      "Ġä¸Ńæĸ°": 6060,
      "Ġpain": 6061,
      "gle": 6062,
      "Ġdi": 6063,
      "æĽ´å¥½": 6064,
      "Ġmodern": 6065,
      "ä¸Ģæī¹": 6066,
      "çĭ¬ç«ĭ": 6067,
      "Ġmor": 6068,
      "æİ¥åĪ°": 6069,
      "Ġsummer": 6070,
      "aving": 6071,
      "Ġready": 6072,
      "Ġonce": 6073,
      ".\"": 6074,
      "IP": 6075,
      "Ġtot": 6076,
      "æ¹ĸäºº": 6077,
      "Ġoil": 6078,
      "åı¸æľº": 6079,
      "ä¸įä½ı": 6080,
      "ĠReg": 6081,
      "æĺ¯ä»Ģä¹Ī": 6082,
      "GD": 6083,
      "ĠBra": 6084,
      "ï¼ħ": 6085,
      "æıĲéĨĴ": 6086,
      "Ã©": 6087,
      "Ġfast": 6088,
      "æĥľ": 6089,
      "è´¯å½»èĲ½å®ŀ": 6090,
      "èĢĥæł¸": 6091,
      "ç§°ä¸º": 6092,
      "é¢ĩ": 6093,
      "äº§æĿĥ": 6094,
      "åº§è°Ī": 6095,
      "Ġdetails": 6096,
      "å®¶çļĦ": 6097,
      "åĬ³åĬ¨": 6098,
      "ç»ĵå©ļ": 6099,
      "ĠåĽ¾": 6100,
      "æĳ¸": 6101,
      "ĠAut": 6102,
      "å¡ĳ": 6103,
      "ogn": 6104,
      "å¼ĢåŃ¦æĹ¶éĹ´": 6105,
      "ulation": 6106,
      "å£°æĺİ": 6107,
      "gra": 6108,
      "æĥ¨": 6109,
      "fully": 6110,
      "è§Ĩè§ī": 6111,
      "icro": 6112,
      "ĠTw": 6113,
      "éĩĩçĶ¨äºĨ": 6114,
      "æļĤåģľ": 6115,
      "å½°": 6116,
      "çĹĩçĬ¶": 6117,
      "Ġveh": 6118,
      "èĸĦ": 6119,
      "çļĦåİŁåĽł": 6120,
      "çī¹æķĪ": 6121,
      "ensive": 6122,
      "Ġident": 6123,
      "Ġfive": 6124,
      "çĸ¯": 6125,
      "ĠJust": 6126,
      "è¯Ħè®º": 6127,
      "èī°": 6128,
      "Ġsoftware": 6129,
      "çİ²": 6130,
      "è¸ª": 6131,
      "éģµ": 6132,
      "èµģ": 6133,
      "æĪĺæĸĹ": 6134,
      "äº®çĽ¸": 6135,
      "æľīä¸Ģä¸ª": 6136,
      "ç§Łèµģ": 6137,
      "èĲ½åľ°": 6138,
      "èĪŀåı°": 6139,
      "Ġautom": 6140,
      "Ġdoing": 6141,
      "éĹ¹": 6142,
      "çĩķ": 6143,
      "ä¸Ģä»£": 6144,
      "æĹ¥çļĦ": 6145,
      "itted": 6146,
      "å¾Īå¿«": 6147,
      "æ±¤": 6148,
      "åĲīæŀĹ": 6149,
      "æĮĩæłĩ": 6150,
      "çľģçº§": 6151,
      "ĠèĻ½çĦ¶": 6152,
      "æ¹¿": 6153,
      "åĵģè´¨": 6154,
      "æľ¬ç§ĳ": 6155,
      "ĠDon": 6156,
      "ä»¥ä¸ĭç®Ģç§°": 6157,
      "å³¡è°·": 6158,
      "ither": 6159,
      "ival": 6160,
      "æİĴæŁ¥": 6161,
      "è¿Ļéĥ¨": 6162,
      "æĶ¾åľ¨": 6163,
      "icy": 6164,
      "èĲĮ": 6165,
      "ĠGod": 6166,
      "Ġkitchen": 6167,
      "å¿§": 6168,
      "You": 6169,
      "ä¸Ģåº¦": 6170,
      "back": 6171,
      "æĢ»æĺ¯": 6172,
      "å¥¥è¿ª": 6173,
      "ç¾İçļĦ": 6174,
      "Ġassist": 6175,
      "åŁİéķĩ": 6176,
      "èº«è¾¹": 6177,
      "Ġresults": 6178,
      "éĥ½æ²¡æľī": 6179,
      "Ġgames": 6180,
      "æĿ¿åĿĹ": 6181,
      "ĠCenter": 6182,
      "ä¸ºä½ķ": 6183,
      "æĪĲæķĪ": 6184,
      "Ġphone": 6185,
      "lement": 6186,
      "éģŃéģĩ": 6187,
      "åķ¥": 6188,
      "Ġsomeone": 6189,
      "400": 6190,
      "èį·": 6191,
      "Ġfre": 6192,
      "Ġwon": 6193,
      "æĹ¥åŃĲ": 6194,
      "åĺ´": 6195,
      "anced": 6196,
      "æ¶Īæ¯Ĵ": 6197,
      "ĠéļıçĿĢ": 6198,
      "è´£ä»»ç¼ĸè¾ĳ": 6199,
      "Ġhope": 6200,
      "Ġcontent": 6201,
      "å¥ĸåĬ±": 6202,
      "ey": 6203,
      "Ġappear": 6204,
      "ĠAcc": 6205,
      "Ġant": 6206,
      "æłı": 6207,
      "Ġamong": 6208,
      "çī¹æľĹ": 6209,
      "ĠMarch": 6210,
      "Ġrecom": 6211,
      "ĠAre": 6212,
      "Ġchoose": 6213,
      "æĹħè¡Į": 6214,
      "Ġeveryone": 6215,
      "Ġ:": 6216,
      "Ġpress": 6217,
      "åĽĽå·Ŀçľģ": 6218,
      "05": 6219,
      "ä¸ĭæ»ĳ": 6220,
      "æĺ¯ä¸įæĺ¯": 6221,
      "åĲİæľŁ": 6222,
      "mercial": 6223,
      "å¤ļäºĨ": 6224,
      "å±±åĮº": 6225,
      "æķĮäºº": 6226,
      "èĳ£äºĭéķ¿": 6227,
      "ipment": 6228,
      "Ġbath": 6229,
      "æ£ļ": 6230,
      "ham": 6231,
      "éħįå¥Ĺ": 6232,
      "ĠWest": 6233,
      "03": 6234,
      "éļ¾åº¦": 6235,
      "LC": 6236,
      "çĭ¼": 6237,
      "åĴĮå¹³": 6238,
      "ĠVal": 6239,
      "æħ°": 6240,
      "æĪ¿ä¼ģ": 6241,
      "ç³ĸ": 6242,
      "Ġtax": 6243,
      "å°ıéķĩ": 6244,
      "çİĽ": 6245,
      "edding": 6246,
      "eral": 6247,
      "time": 6248,
      "Ġsale": 6249,
      "åıĳå¸ĥçļĦ": 6250,
      "åį±æľº": 6251,
      "æĺ¯ä¸ª": 6252,
      "ĠAb": 6253,
      "çļĦèĢģ": 6254,
      "Ġparticip": 6255,
      "çī¹æľĹæĻ®": 6256,
      "ç¢§": 6257,
      "åĬ¨ä½ľ": 6258,
      "æĪĴ": 6259,
      "Ġaud": 6260,
      "Ġparticular": 6261,
      "Ġfoot": 6262,
      "Ġtext": 6263,
      "åģļåĩº": 6264,
      "çĽĲ": 6265,
      "Ġtradition": 6266,
      "ä¸Ĭåįĩ": 6267,
      "å§¿": 6268,
      "Ġbox": 6269,
      "Ġlik": 6270,
      "ĠHome": 6271,
      "If": 6272,
      "ana": 6273,
      "ĠUK": 6274,
      "å¼ķè¿Ľ": 6275,
      "åłª": 6276,
      "å¹¿åĳĬ": 6277,
      "è°¢è°¢": 6278,
      "èĥŀ": 6279,
      "Ġeconom": 6280,
      "èĲ¥éĢł": 6281,
      "ä¸Ńåħ±": 6282,
      "ead": 6283,
      "ä¸¤å¹´": 6284,
      "Ġthroughout": 6285,
      "Ġissues": 6286,
      "Ġenergy": 6287,
      "ĠAir": 6288,
      "Ġcertain": 6289,
      "Ġtell": 6290,
      "åĲĮæľŁ": 6291,
      "æī¿æĭħ": 6292,
      "Ġtaking": 6293,
      "è¿Ļä¹Łæĺ¯": 6294,
      "èĬĤå¥ı": 6295,
      "Ġenc": 6296,
      "å¢ĥå¤ĸ": 6297,
      "ç®¡çĲĨå±Ģ": 6298,
      "Ġdocu": 6299,
      "ĠåĪĺ": 6300,
      "ä¸įä¹ħ": 6301,
      "ĠéĢļè®¯åĳĺ": 6302,
      "èĩªè¡Į": 6303,
      "Ġæį®äºĨè§£": 6304,
      "åľºæīĢ": 6305,
      "aching": 6306,
      "é¬¼": 6307,
      "æ¹ĸåĮĹçľģ": 6308,
      "çļĦéĢļçŁ¥": 6309,
      "åģľè½¦": 6310,
      "å±±å¸Ĥ": 6311,
      "èĪĴéĢĤ": 6312,
      "01": 6313,
      "Ġclear": 6314,
      "Ġdue": 6315,
      "æİĮæı¡": 6316,
      "EC": 6317,
      "Ġcook": 6318,
      "è¿Ļä¹Ł": 6319,
      "EO": 6320,
      "éĵľ": 6321,
      "ables": 6322,
      "è¾ĵåħ¥": 6323,
      "Ġrecent": 6324,
      "æ¼ı": 6325,
      "æĺ¯éĿŀå¸¸": 6326,
      "äºĨå¾Īå¤ļ": 6327,
      "ä¸įä¸Ģæł·": 6328,
      "çĽĪ": 6329,
      "Ġredu": 6330,
      "è¢ĸ": 6331,
      "Ġheld": 6332,
      "å²©": 6333,
      "ĠPres": 6334,
      "ĠEd": 6335,
      "Ġlov": 6336,
      "Ġ2014": 6337,
      "hold": 6338,
      "ĠDep": 6339,
      "Ġexam": 6340,
      "ç¤¾ä¼ļä¸»ä¹ī": 6341,
      "æĹłè®ºæĺ¯": 6342,
      "ĠæľĢè¿ĳ": 6343,
      "ä¸ļä¸»": 6344,
      "ĠBy": 6345,
      "çİ°éĩĳ": 6346,
      "èľľ": 6347,
      "ĠArt": 6348,
      "æī°": 6349,
      "ety": 6350,
      "åĿļåĨ³": 6351,
      "åĴĮåĽ½": 6352,
      "ĠAustral": 6353,
      "PS": 6354,
      "acy": 6355,
      "ĠOct": 6356,
      "Ġoptions": 6357,
      "æµ®": 6358,
      "éĥ½è¦ģ": 6359,
      "æįķ": 6360,
      "æĬĹçĸ«": 6361,
      "Ġseen": 6362,
      "åĮĸçļĦ": 6363,
      "çŃīåľ°": 6364,
      "è´º": 6365,
      "Ġmiss": 6366,
      "èĩªçĶ±": 6367,
      "Ġleading": 6368,
      "ä¸Ńè¶ħ": 6369,
      "Ġred": 6370,
      "çĿ£å¯Ł": 6371,
      "éĢĲæŃ¥": 6372,
      "åĬłçĽŁ": 6373,
      "Ġattend": 6374,
      "æ³ķåĽ½": 6375,
      "ze": 6376,
      "Ġpri": 6377,
      "å¿į": 6378,
      "æĴ¤": 6379,
      "åıĤèµĽ": 6380,
      "Ch": 6381,
      "Ġtown": 6382,
      "Ġpark": 6383,
      "Ġopportunity": 6384,
      "Ġé¦ĸåħĪ": 6385,
      "åıĳå¸ĥäºĨ": 6386,
      "ç®ĢçĽ´": 6387,
      "åĲĦä¸ª": 6388,
      "ĠPe": 6389,
      "Ġleast": 6390,
      "åĿĿ": 6391,
      "ä¸Ģè¡Į": 6392,
      "åĪ°ä½į": 6393,
      "åĲĦå¤§": 6394,
      "éĺĶ": 6395,
      "çģŃ": 6396,
      "yd": 6397,
      "Ġabove": 6398,
      "Ġmob": 6399,
      "ises": 6400,
      "æ¡ĳ": 6401,
      "ĠSw": 6402,
      "åıĳåĩº": 6403,
      "æĶ¶åĪ°": 6404,
      "ç»ª": 6405,
      "Ġversion": 6406,
      "çº¿è·¯": 6407,
      "Ġcoll": 6408,
      "pecially": 6409,
      "Ġfire": 6410,
      "Ġland": 6411,
      "åľ°ä½į": 6412,
      "äºĴåĬ¨": 6413,
      "ators": 6414,
      "æĶ¶è´Ń": 6415,
      "åĲĬ": 6416,
      "Ġwonder": 6417,
      "ĠCor": 6418,
      "nder": 6419,
      "ĠFriday": 6420,
      "æ°Ķè±¡": 6421,
      "å®¡æī¹": 6422,
      "icated": 6423,
      "Ġpaper": 6424,
      "å½Ń": 6425,
      "å¼ķé¢Ĩ": 6426,
      "ĠJu": 6427,
      "èµ«": 6428,
      "æķĪçİĩ": 6429,
      "ä¸įåĩº": 6430,
      "æĺ¨æĹ¥": 6431,
      "èļ": 6432,
      "å£ģ": 6433,
      "Ġstore": 6434,
      "åĿ¤": 6435,
      "çŀ¬éĹ´": 6436,
      "æĪĲå°±": 6437,
      "æĪĲçĨŁ": 6438,
      "âĦĥ": 6439,
      "åı¥è¯Ŀ": 6440,
      "æ¡Į": 6441,
      "å¯ĨåĪĩ": 6442,
      "ç¨»": 6443,
      "Ġmethod": 6444,
      "èµĶ": 6445,
      "ä¸Ĭè¿°": 6446,
      "Ġclose": 6447,
      "ĠSec": 6448,
      "å¥ī": 6449,
      "çļĦä¸»": 6450,
      "eter": 6451,
      "çº¿æĿ¡": 6452,
      "ctor": 6453,
      "ä½ľåĩº": 6454,
      "Ġansw": 6455,
      "ada": 6456,
      "æĽ¹": 6457,
      "å¾Ĵ": 6458,
      "Ġbuilt": 6459,
      "æ¶īå«Į": 6460,
      "æħķ": 6461,
      "Ġä¸ī": 6462,
      "Ġful": 6463,
      "Ġproviding": 6464,
      "Ġexcell": 6465,
      "æĿĨ": 6466,
      "HE": 6467,
      "æ£ĢéªĮ": 6468,
      "èİ·åıĸ": 6469,
      "eke": 6470,
      "Ġofficial": 6471,
      "åŁºç¡Ģä¸Ĭ": 6472,
      "æį®äºĨè§£": 6473,
      "idge": 6474,
      "èĭ±è¯Ń": 6475,
      "åģĩæľŁ": 6476,
      "ĠGe": 6477,
      "æ¹ĸåįĹçľģ": 6478,
      "åħ¬ç§¯": 6479,
      "åĲĦä½į": 6480,
      "çĸ¾çĹħ": 6481,
      "åİ»äºĨ": 6482,
      "å±Ĥæ¬¡": 6483,
      "Ġcond": 6484,
      "äººåľ¨": 6485,
      "å¾ĹåĪ°äºĨ": 6486,
      "åħĦ": 6487,
      "çĤĴ": 6488,
      "åĽ½åºĨ": 6489,
      "mas": 6490,
      "èİī": 6491,
      "ä»¿": 6492,
      "æĭ¿ä¸ĭ": 6493,
      "åİ¨": 6494,
      "éĤ»": 6495,
      "å°ıçļĦ": 6496,
      "uary": 6497,
      "å·ħ": 6498,
      "ĠWill": 6499,
      "ĠEm": 6500,
      "æį®æĤī": 6501,
      "èİİ": 6502,
      "aining": 6503,
      "æł¡éķ¿": 6504,
      "åĮ»æĬ¤": 6505,
      "Ġtru": 6506,
      "57": 6507,
      "wood": 6508,
      "Ġå¦Ĥæŀľ": 6509,
      "Ġach": 6510,
      "é¾Ļæ±Ł": 6511,
      "åħ¬ç§¯éĩĳ": 6512,
      "Ġfamil": 6513,
      "Ġaccom": 6514,
      "çłĶç©¶çĶŁ": 6515,
      "éĺ³åħī": 6516,
      "ä¹ĭéĹ´çļĦ": 6517,
      "è¿ĺæ²¡æľī": 6518,
      "ires": 6519,
      "Ġcustomer": 6520,
      "æ´»åĬĽ": 6521,
      "è¿ĩäºĨ": 6522,
      "ä¸´æĹ¶": 6523,
      "å¯¹æ¯Ķ": 6524,
      "Ġclos": 6525,
      "Ġrecommend": 6526,
      "éĤ£å°±æĺ¯": 6527,
      "iod": 6528,
      "æĶ¾å¼ĥ": 6529,
      "Ġactually": 6530,
      "æĢ»ç»ıçĲĨ": 6531,
      "æľºåĻ¨": 6532,
      "çĶ³æĬ¥": 6533,
      "æ¯ķä¸ļçĶŁ": 6534,
      "è¡¨è¾¾": 6535,
      "åĪĨä¸º": 6536,
      "Ġroad": 6537,
      "æīĵåĩº": 6538,
      "æ³¡": 6539,
      "Ġjour": 6540,
      "Ġparent": 6541,
      "arden": 6542,
      "ura": 6543,
      "right": 6544,
      "å¡ĺ": 6545,
      "Ġæĸĩ": 6546,
      "Ġåħ¶å®ŀ": 6547,
      "Ġfavorite": 6548,
      "èĥĸ": 6549,
      "Ġdoesn": 6550,
      "year": 6551,
      "åīª": 6552,
      "Ġsystems": 6553,
      "æīįæĺ¯": 6554,
      "Ġprivate": 6555,
      "å¿ħè¦ģ": 6556,
      "æ·®": 6557,
      "aily": 6558,
      "ç«ŁçĦ¶": 6559,
      "éļ¾ä»¥": 6560,
      "åĸ·": 6561,
      "Ġsolutions": 6562,
      "æİ¥ä¸ĭæĿ¥": 6563,
      "å¥Ī": 6564,
      "éĢĬ": 6565,
      "å¸¦æĿ¥çļĦ": 6566,
      "çľģä»½": 6567,
      "Ġhappen": 6568,
      "Ġface": 6569,
      "92": 6570,
      "reet": 6571,
      "Ġwatch": 6572,
      "éŃĤ": 6573,
      "æ±ĩæĬ¥": 6574,
      "ĠåĮĹäº¬æĹ¶éĹ´": 6575,
      "å®īè£ħ": 6576,
      "52": 6577,
      "Ġways": 6578,
      "éĤ¦": 6579,
      "æ³ķå¸Ī": 6580,
      "èµĸ": 6581,
      "Ġfunction": 6582,
      "ĠAg": 6583,
      "Ġfinancial": 6584,
      "æµģåĬ¨": 6585,
      "æĶ¶è´¹": 6586,
      "ä¼¸": 6587,
      "åĩºåľº": 6588,
      "éĥ½å¾Ī": 6589,
      "é«ĺè¾¾": 6590,
      "ĠWhile": 6591,
      "çļĦä¸į": 6592,
      "Ġauthor": 6593,
      "airs": 6594,
      "å¥Ķé©°": 6595,
      "rie": 6596,
      "åį³ä¾¿": 6597,
      "æĢ§èĥ½": 6598,
      "èµ°è®¿": 6599,
      "æŁľ": 6600,
      "ä¸ĵéĹ¨": 6601,
      "èĶ¬": 6602,
      "era": 6603,
      "Ġmodel": 6604,
      "ground": 6605,
      "Ġidea": 6606,
      "æĭĶ": 6607,
      "æ½ĺ": 6608,
      "åģ¥èº«": 6609,
      "çŃ¾è®¢": 6610,
      "Ġrelations": 6611,
      "Ġfall": 6612,
      "Ġswe": 6613,
      "Ġfur": 6614,
      "è¿Ķæł¡": 6615,
      "æ»¡æĦı": 6616,
      "å¸ķ": 6617,
      "æ¦Ĥå¿µ": 6618,
      "æħĪ": 6619,
      "Ġwhole": 6620,
      "Ġreceive": 6621,
      "è¿Ľå±ķ": 6622,
      "æ¢¦æĥ³": 6623,
      "irth": 6624,
      "86": 6625,
      "å·²æľī": 6626,
      "å¯ĵ": 6627,
      "ĠWind": 6628,
      "ãĢĭãĢģãĢĬ": 6629,
      "sc": 6630,
      "ees": 6631,
      "åŁºæľ¬ä¸Ĭ": 6632,
      "ĠSund": 6633,
      "Ġgiven": 6634,
      "Ġextra": 6635,
      "ä¹łæĥ¯": 6636,
      "ï¼ĳ": 6637,
      "3000": 6638,
      "æĬ«éľ²": 6639,
      "æĪĪ": 6640,
      "å¯¹å¤ĸ": 6641,
      "Ġimages": 6642,
      "Ġskin": 6643,
      "çĲ³": 6644,
      "ä¹ĭä¸Ń": 6645,
      "äºĭä¸ļåįķä½į": 6646,
      "ä¹ĭè·¯": 6647,
      "çļĦç¬¬ä¸Ģ": 6648,
      "ä¸Ńå°ıåŃ¦": 6649,
      "Ġprojects": 6650,
      "Ġpan": 6651,
      "åĹ": 6652,
      "åĭŁ": 6653,
      "æŃ£æĺ¯": 6654,
      "èĻ«": 6655,
      "Ġalmost": 6656,
      "na": 6657,
      "ç´§å¼ł": 6658,
      "ĠGr": 6659,
      "Ġsle": 6660,
      "redit": 6661,
      "opy": 6662,
      "åģļäºĨ": 6663,
      "ï¼Ĳ": 6664,
      "ç¢ĳ": 6665,
      "Ġprovided": 6666,
      "åŃ¦ç§ĳ": 6667,
      "é¤Ĳé¥®": 6668,
      "èº«ç©¿": 6669,
      "æĦ¿æĦı": 6670,
      "Ġwent": 6671,
      "oman": 6672,
      "ä¿¡å¿ĥ": 6673,
      "åįģå¹´": 6674,
      "åĶ¤": 6675,
      "clus": 6676,
      "ç»ıæµİåıĳå±ķ": 6677,
      "é£ŀæľº": 6678,
      "Ġensure": 6679,
      "äºĮæīĭ": 6680,
      "ging": 6681,
      "å¥³äºº": 6682,
      "çľī": 6683,
      "Ġè¯´": 6684,
      "åľ¨è¿Ļä¸ª": 6685,
      "atform": 6686,
      "ĠUs": 6687,
      "æĹĹä¸ĭ": 6688,
      "ç»ĻäºĨ": 6689,
      "Ġamazing": 6690,
      "Ġintrodu": 6691,
      "Ġå°ı": 6692,
      "Ġgovernment": 6693,
      "ondon": 6694,
      "not": 6695,
      "è¯Ħä¼°": 6696,
      "å¿ĥçĲĨ": 6697,
      "é«¦": 6698,
      "çĲĨè®º": 6699,
      "åħ³éĹŃ": 6700,
      "çĥŃéĹ¨": 6701,
      "Ġdidn": 6702,
      "æĹ¶çļĦ": 6703,
      "ä¸Ģä¸ªæľĪ": 6704,
      "æĹ¶é«¦": 6705,
      "æ¸¡": 6706,
      "è¯Ńè¨Ģ": 6707,
      "ouch": 6708,
      "èĢģå¹´": 6709,
      "ibility": 6710,
      "ä¸ĢåĪĩ": 6711,
      "æĶ¶èİ·": 6712,
      "çĻ¾åĪĨ": 6713,
      "å¾¡": 6714,
      "æī¹åĩĨ": 6715,
      "åĩ¸": 6716,
      "å¸ĤåľºçļĦ": 6717,
      "Ġeffective": 6718,
      "ĠHar": 6719,
      "ief": 6720,
      "Ġphys": 6721,
      "Ġarticle": 6722,
      "å¹¿ä¸ľçľģ": 6723,
      "åĩºéĻ¢": 6724,
      "Ġdou": 6725,
      "å®¶æĹı": 6726,
      "åį±éĻ©": 6727,
      "ç«¹": 6728,
      "ç»Ļäºº": 6729,
      "åĬłæ²¹": 6730,
      "åı¯è°ĵ": 6731,
      "éĿĴæµ·": 6732,
      "Ġoriginal": 6733,
      "è¯Ī": 6734,
      "ä¸Ĭä¸Ģ": 6735,
      "ä½¿å¾Ĺ": 6736,
      "æĶ¶çĽĬ": 6737,
      "é¢Ĺ": 6738,
      "Ġknowledge": 6739,
      "çİĩåħĪ": 6740,
      "æĹ¥æ¶Īæģ¯": 6741,
      "åĽ½å¤ĸ": 6742,
      "oday": 6743,
      "oud": 6744,
      "éĻ¢éķ¿": 6745,
      "éĩĬæĶ¾": 6746,
      "ĠæĪĳä»¬": 6747,
      "å¯Ħ": 6748,
      "Ġapplication": 6749,
      "51": 6750,
      "çĸ«æĥħçļĦ": 6751,
      "Phone": 6752,
      "2013": 6753,
      "87": 6754,
      "Ġreason": 6755,
      "æ¯ģ": 6756,
      "Ġquestion": 6757,
      "æĺĤ": 6758,
      "ĠAf": 6759,
      "par": 6760,
      "ä¸Ģè¾¹": 6761,
      "Ġrequired": 6762,
      "Ġfilm": 6763,
      "Ġbelieve": 6764,
      "ä¸īå¹´": 6765,
      "ä¸ľæĸ¹": 6766,
      "åĬ©æĶ»": 6767,
      "Ġsales": 6768,
      "çļĦç¾İ": 6769,
      "ler": 6770,
      "éĹ¨åı£": 6771,
      "ä¸ªæĢ§": 6772,
      "Ġmeas": 6773,
      "æīĵå¼Ģ": 6774,
      "my": 6775,
      "angu": 6776,
      "çľĭäºĨ": 6777,
      "åĨľäº§åĵģ": 6778,
      "æ²ŁéĢļ": 6779,
      "Ġdeb": 6780,
      "earch": 6781,
      "åħ¬åı¸çļĦ": 6782,
      "æ·±åº¦": 6783,
      "åįĵ": 6784,
      "Ġinnov": 6785,
      "éĿŀæ³ķ": 6786,
      "çĸĳä¼¼": 6787,
      "aturday": 6788,
      "ĠOf": 6789,
      "Ġlocation": 6790,
      "Ġquite": 6791,
      "æĻļä¸Ĭ": 6792,
      "æĬ¼": 6793,
      "çºªå¾ĭ": 6794,
      "è©¹å§Ĩæĸ¯": 6795,
      "åħģ": 6796,
      "Ġeducation": 6797,
      "ä¹ı": 6798,
      "èģļçĦ¦": 6799,
      "apt": 6800,
      "åĬłéĢŁ": 6801,
      "åįĹæĺĮ": 6802,
      "æĸĮ": 6803,
      "Ġdate": 6804,
      "é¸Ł": 6805,
      "ison": 6806,
      "åħ¬åĬ¡": 6807,
      "Ġ21": 6808,
      "ĠFeb": 6809,
      "åį°åº¦": 6810,
      "å¾Īå¤§çļĦ": 6811,
      "èİ²": 6812,
      "èĢħçļĦ": 6813,
      "ĠSome": 6814,
      "pper": 6815,
      "ç£¨": 6816,
      "çľĭåĩº": 6817,
      "åĢ¾": 6818,
      "OU": 6819,
      "å®ł": 6820,
      "æ¸ħæ¥ļ": 6821,
      "èµĭ": 6822,
      "æĳĩ": 6823,
      "Ġfile": 6824,
      "Ġsil": 6825,
      "cks": 6826,
      "ĠSept": 6827,
      "ĠFin": 6828,
      "ĠHouse": 6829,
      "59": 6830,
      "aid": 6831,
      "å¾Ģå¾Ģ": 6832,
      "ued": 6833,
      "æµħ": 6834,
      "äº§ä¸ļåıĳå±ķ": 6835,
      "ç©¶ç«Ł": 6836,
      "ern": 6837,
      "åŃ¤": 6838,
      "bor": 6839,
      "icult": 6840,
      "Ġsun": 6841,
      "Ġweeks": 6842,
      "æĹ¥æľŁ": 6843,
      "Ġlearning": 6844,
      "æĢĴ": 6845,
      "ĠEl": 6846,
      "Ġestab": 6847,
      "ä¸Ģå¥Ĺ": 6848,
      "elt": 6849,
      "cil": 6850,
      "æ°ĽåĽ´": 6851,
      "ING": 6852,
      "åĨ¯": 6853,
      "ĠPar": 6854,
      "ober": 6855,
      "Ġcoming": 6856,
      "å¥ĳ": 6857,
      "æĢ»ç»ĵ": 6858,
      "è´¸æĺĵ": 6859,
      "äºĶå¹´": 6860,
      "æĭħå½ĵ": 6861,
      "åī§æĥħ": 6862,
      "ä¿¡çĶ¨": 6863,
      "åľ°åĽ¾": 6864,
      "Ġconcer": 6865,
      "èħ¾è®¯": 6866,
      "Ġâĸ": 6867,
      "ĠUp": 6868,
      "æĢģåº¦": 6869,
      "ãĢĭï¼Ī": 6870,
      "æľ¬äºº": 6871,
      "çŃīå¤ļ": 6872,
      "ville": 6873,
      "è´¢ç»ı": 6874,
      "æİ§èĤ¡": 6875,
      "åıł": 6876,
      "æĤ¦": 6877,
      "çļĩé©¬": 6878,
      "Ġamount": 6879,
      "åĪ«äºº": 6880,
      "åıĤèĢĥ": 6881,
      "Ġyourself": 6882,
      "è£ħé¥°": 6883,
      "åĬ¨æĢģ": 6884,
      "åİ¦éĹ¨": 6885,
      ",âĢĿ": 6886,
      "å¯¹æİ¥": 6887,
      "Ġut": 6888,
      "æİĺ": 6889,
      "Ġparty": 6890,
      "æ¸Ķ": 6891,
      "æĦıæĢĿ": 6892,
      "ä¸Ģæĺ¯": 6893,
      "ä¸ľåĮĹ": 6894,
      "Ġphotos": 6895,
      "ĠWork": 6896,
      "æ¬²": 6897,
      "Ġsoon": 6898,
      "Â®": 6899,
      "Ġple": 6900,
      "ox": 6901,
      "Ġusers": 6902,
      "Ġhuman": 6903,
      "æµģéĩı": 6904,
      "EL": 6905,
      "ĠInt": 6906,
      "åľ°éĵģ": 6907,
      "æ°Ķæģ¯": 6908,
      "ä¹Łè¦ģ": 6909,
      "å¸¸è§Ħ": 6910,
      "Ġ2013": 6911,
      "itor": 6912,
      "ä¸Ī": 6913,
      "cast": 6914,
      "æ¬¾å¼ı": 6915,
      "æ°Ķæ¸©": 6916,
      "Ġannounced": 6917,
      "Ġshows": 6918,
      "è¯´çļĦ": 6919,
      "Ġmarketing": 6920,
      "ĠBlack": 6921,
      "ä¸Ģèĩ´": 6922,
      "ç¨į": 6923,
      "Ġsat": 6924,
      "54": 6925,
      "Ġitems": 6926,
      "æµģç¨ĭ": 6927,
      "53": 6928,
      "ç²¾åĩĨæī¶è´«": 6929,
      "èĩªä»İ": 6930,
      "Ġkids": 6931,
      "äºĨä¸įå°ĳ": 6932,
      "Ġmember": 6933,
      "rs": 6934,
      "ĠFree": 6935,
      "Ġsong": 6936,
      "æĶ¯æĴĳ": 6937,
      "åłĨ": 6938,
      "ha": 6939,
      "åįĥä¸ĩ": 6940,
      "ĠGet": 6941,
      "æĬĹåĩ»": 6942,
      "ç¿Ķ": 6943,
      "å®¡æŁ¥": 6944,
      "Ġentire": 6945,
      "ellow": 6946,
      "Ġstra": 6947,
      "è§ĦåĪĻ": 6948,
      "overed": 6949,
      "ĠSer": 6950,
      "Ġweeke": 6951,
      "ĠMc": 6952,
      "Ġposted": 6953,
      "åĩĢåĪ©æ¶¦": 6954,
      "å¸ħæ°Ķ": 6955,
      "å¾Īå¥½çļĦ": 6956,
      "æīİå®ŀ": 6957,
      "Ġself": 6958,
      "éĻ¶": 6959,
      "æĽ´æľī": 6960,
      "åĪ©çĽĬ": 6961,
      "ĠHealth": 6962,
      "çĤ¹åĩ»": 6963,
      "Ġactivities": 6964,
      "Ġå¤§": 6965,
      "å©·": 6966,
      "åĵįåºĶ": 6967,
      "Ġskills": 6968,
      "Ġmorning": 6969,
      "åĳ¨å¹´": 6970,
      "å¼ĢåıĳåķĨ": 6971,
      "ification": 6972,
      "ublic": 6973,
      "é¢Ħéĺ²": 6974,
      "éķ¿æ±Ł": 6975,
      "åıĤè§Ĥ": 6976,
      "çºµ": 6977,
      "æķĻèĤ²å±Ģ": 6978,
      "based": 6979,
      "å§ļ": 6980,
      "odel": 6981,
      "åĪĿä¸Ń": 6982,
      "As": 6983,
      "æİ¥è¿ĳ": 6984,
      "Ġchoice": 6985,
      "ĠæĪĳ": 6986,
      "åĬłå·¥": 6987,
      "èĤ¡ç¥¨": 6988,
      "åĸľçĪ±": 6989,
      "åŁºç¡Ģè®¾æĸ½": 6990,
      "åĨħé¥°": 6991,
      "æ¸¸æĪıä¸Ń": 6992,
      "è¿ĺä¼ļ": 6993,
      "çĵ¶": 6994,
      "æľºæ¢°": 6995,
      "æ£Ģå¯ŁéĻ¢": 6996,
      "Ġcool": 6997,
      "Ġcode": 6998,
      "èĵĿèī²": 6999,
      "å®ļçļĦ": 7000,
      "å¨±ä¹ĲåľĪ": 7001,
      "èĲ¥éĶĢ": 7002,
      "åįķåĵģ": 7003,
      "adem": 7004,
      "face": 7005,
      "urg": 7006,
      "ĠLondon": 7007,
      "è¥¿èĹı": 7008,
      "éĢ¸": 7009,
      "uge": 7010,
      "åįĹå®ģ": 7011,
      "ä¾ł": 7012,
      "æĢ§æĦŁ": 7013,
      "è½´": 7014,
      "ĠSaturday": 7015,
      "67": 7016,
      "åħ³å¿ĥ": 7017,
      "åħĭæĸ¯": 7018,
      "Ġhalf": 7019,
      "çĪ±æĥħ": 7020,
      "åľ°åĿĢ": 7021,
      "é¢Ĩå¯¼å°ıç»Ħ": 7022,
      "ĠBus": 7023,
      "åŃ¦åİĨ": 7024,
      "Ġspend": 7025,
      "hib": 7026,
      "éķ¿å®ī": 7027,
      "å°ıä¼Ļä¼´": 7028,
      "æĦŁæĥħ": 7029,
      "ç±»åŀĭ": 7030,
      "äººå¤§å¸¸å§Ķä¼ļ": 7031,
      "Ġtakes": 7032,
      "çĤ®": 7033,
      "ä½ĵæ£Ģ": 7034,
      "ä¸įå¦Ĥ": 7035,
      "çĮ´": 7036,
      "ĠInternational": 7037,
      "è´¢åĬ¡": 7038,
      "å½±è§Ĩ": 7039,
      "AP": 7040,
      "Ġbase": 7041,
      "Ġstock": 7042,
      "å¹³å®ī": 7043,
      "åĩĿ": 7044,
      "è¾ĸåĮº": 7045,
      "é»ĳé¾Ļæ±Ł": 7046,
      "oogle": 7047,
      "é¦ĸæī¹": 7048,
      "ĠStates": 7049,
      "150": 7050,
      "Ġprob": 7051,
      "å¸Ĥåħ¬å®īå±Ģ": 7052,
      "ä¸ĢæĹ¦": 7053,
      "ä¸įå¤Ł": 7054,
      "åĵŃ": 7055,
      "é¢Ħç®Ĺ": 7056,
      "Ġadded": 7057,
      "ios": 7058,
      "Ġsend": 7059,
      "ny": 7060,
      "åĮ¹": 7061,
      "è½¿è½¦": 7062,
      "ming": 7063,
      "Ġgirl": 7064,
      "Ġexpert": 7065,
      "åŃ©åŃĲä»¬": 7066,
      "Ġdigital": 7067,
      "Ġcontract": 7068,
      "Ġrepresent": 7069,
      "hing": 7070,
      "Ġmix": 7071,
      "Ġdog": 7072,
      "éĺ³åİ¿": 7073,
      "éĿ©åĳ½": 7074,
      "mit": 7075,
      "ç»ŁçŃ¹": 7076,
      "lin": 7077,
      "Ġinit": 7078,
      "æĶ¯éĺŁ": 7079,
      "ä¸įçŁ¥": 7080,
      "ship": 7081,
      "ä¸ĬéĿ¢": 7082,
      "çº¤": 7083,
      "Ġdrive": 7084,
      "Ġrunning": 7085,
      "ä»İäºĭ": 7086,
      "æĹłæķ°": 7087,
      "Ġallows": 7088,
      "93": 7089,
      "Ġespecially": 7090,
      "çĸı": 7091,
      "ese": 7092,
      "94": 7093,
      "Ġaccording": 7094,
      "åį°åıĳ": 7095,
      "æĹħå®¢": 7096,
      "ĠAug": 7097,
      "ç±»ä¼¼": 7098,
      "å¼ĢéĢļ": 7099,
      "éŃı": 7100,
      "æĢ»è£ģ": 7101,
      "hern": 7102,
      "çĥ¦": 7103,
      "åĩ»è´¥": 7104,
      "Ġtaken": 7105,
      "iple": 7106,
      "Ġfresh": 7107,
      "Ġhappy": 7108,
      "idence": 7109,
      "Ġexist": 7110,
      "æ¼Ĥäº®": 7111,
      "izes": 7112,
      "çĶ¨çļĦ": 7113,
      "ç¬¬ä¸ĢæĹ¶éĹ´": 7114,
      "é¸£": 7115,
      "å¤¸": 7116,
      "120": 7117,
      "èĢģæĿ¿": 7118,
      "æļ´éĽ¨": 7119,
      "ä¸Ģè¾Ĩ": 7120,
      "head": 7121,
      "åĪĨæķ°": 7122,
      "åįļå£«": 7123,
      "Ġpret": 7124,
      "è®¸åı¯": 7125,
      "æ²ª": 7126,
      "æĸ°å»º": 7127,
      "ĠFirst": 7128,
      "icles": 7129,
      "å¸ĪçĶŁ": 7130,
      "Ġsecurity": 7131,
      "æłĭ": 7132,
      "è¾¾åĪ°äºĨ": 7133,
      "æŁı": 7134,
      "Ġhair": 7135,
      "æĺĨæĺİ": 7136,
      "æī¿è¯º": 7137,
      "Ġwhether": 7138,
      "ä¸įå¤ļ": 7139,
      "ĠSunday": 7140,
      "å¸ĤåĮº": 7141,
      "è´¨çĸĳ": 7142,
      "çºªå¿µ": 7143,
      "Ġinternational": 7144,
      "Ġmov": 7145,
      "é¢ģ": 7146,
      "èĩ³äºİ": 7147,
      "å§Ĳå§Ĳ": 7148,
      "æ¡Ĩ": 7149,
      "ä¸Ĭè¯¾": 7150,
      "iate": 7151,
      "ĠGroup": 7152,
      "æľĭåıĭåľĪ": 7153,
      "ĠMond": 7154,
      "ĠHer": 7155,
      "verage": 7156,
      "å¤Ħç½®": 7157,
      "æĹº": 7158,
      "æıĲåĪ°": 7159,
      "éľŀ": 7160,
      "Ġtools": 7161,
      "oph": 7162,
      "Ġhighly": 7163,
      "å±¥è¡Į": 7164,
      "ĠJune": 7165,
      "ĠMon": 7166,
      "Ġconsider": 7167,
      "Ġrecogn": 7168,
      "é«ĺéĢŁåħ¬è·¯": 7169,
      "uit": 7170,
      "Ġanim": 7171,
      "å½ĵåľ°æĹ¶éĹ´": 7172,
      "600": 7173,
      "æıĴ": 7174,
      "èĻŀ": 7175,
      "æľ¬æĿ¥": 7176,
      "ä¼ĬæľĹ": 7177,
      "Ġarch": 7178,
      "Ġperiod": 7179,
      "è¢ĭ": 7180,
      "itting": 7181,
      "èī¯å¥½çļĦ": 7182,
      "ĠGreat": 7183,
      "??": 7184,
      "PR": 7185,
      "ä¸Ģå¼ł": 7186,
      "Ġdecor": 7187,
      "Ġtit": 7188,
      "ä¹Łå°±": 7189,
      "cription": 7190,
      "orage": 7191,
      "å·¨å¤§": 7192,
      "çłĸ": 7193,
      "Ġregard": 7194,
      "æ»¡æ»¡": 7195,
      "itten": 7196,
      "èģĮåĬ¡": 7197,
      "ester": 7198,
      "è¿Ļåľº": 7199,
      "64": 7200,
      "èĮĥåĽ´åĨħ": 7201,
      "ĠAc": 7202,
      "åİ¿åŁİ": 7203,
      "çİ©å®¶ä»¬": 7204,
      "åĨįåĬłä¸Ĭ": 7205,
      "istration": 7206,
      "åĩºæĿ¥çļĦ": 7207,
      "åħ±åĴĮåĽ½": 7208,
      "ä¸¢": 7209,
      "Ġhon": 7210,
      "è½¬ä¼ļ": 7211,
      "åıįåºĶ": 7212,
      "ĠéĻĪ": 7213,
      "5000": 7214,
      "æĪĺå£«": 7215,
      "Ġwriting": 7216,
      "èĴĭ": 7217,
      "æ¶¨å¹ħ": 7218,
      "etimes": 7219,
      "Ġ*": 7220,
      "å¾ª": 7221,
      "çº³åħ¥": 7222,
      "åł¡": 7223,
      "å§¬": 7224,
      "è¿Ļæ¬¾çļ®èĤ¤": 7225,
      "Ġwanted": 7226,
      "Ġsimply": 7227,
      "Ġetc": 7228,
      "ç»ıæµİç¤¾ä¼ļ": 7229,
      "ä»İèĢĮ": 7230,
      "è¢ģ": 7231,
      "è¯¥åħ¬åı¸": 7232,
      "Ġsays": 7233,
      "Ġlater": 7234,
      "Ġstri": 7235,
      "çĿĢåĬĽ": 7236,
      "æĭĺ": 7237,
      "Ġreceived": 7238,
      "å½»åºķ": 7239,
      "Ġmaterials": 7240,
      "åĬ¨è½¦": 7241,
      "çº¿ä¸ĭ": 7242,
      "ĠAct": 7243,
      "åĪĨå±Ģ": 7244,
      "å®ŀåľ°": 7245,
      "Ġsugg": 7246,
      "ç½ĳè¯¾": 7247,
      "åı¯è§ģ": 7248,
      "åĩºçİ°åľ¨": 7249,
      "Ġfab": 7250,
      "Ġvia": 7251,
      "æĢ»ç»Ł": 7252,
      "Ġbott": 7253,
      "ĠEvery": 7254,
      "Ġpractice": 7255,
      "æĬķèµĦèĢħ": 7256,
      "Ġproblems": 7257,
      "å¿½": 7258,
      "though": 7259,
      "Ġ[": 7260,
      "Ġinsurance": 7261,
      "Ġmobile": 7262,
      "Ġequipment": 7263,
      "åĪĬ": 7264,
      "è½¬ç§»": 7265,
      "åĪĨåĪ«ä¸º": 7266,
      "Ġmeeting": 7267,
      "çļĦè¡¨çİ°": 7268,
      "ï¼ģâĢĿ": 7269,
      "ilar": 7270,
      "æ±Ľ": 7271,
      "èĩªæĪĳ": 7272,
      "å¿«éĢĴ": 7273,
      "Ġprevious": 7274,
      "æ¯ıæ¬¡": 7275,
      "æķĳåĬ©": 7276,
      "æĪªæŃ¢": 7277,
      "iring": 7278,
      "84": 7279,
      "Ġcomputer": 7280,
      "ä¸ĭä¸Ģ": 7281,
      "åĲ¹": 7282,
      "æŁ±": 7283,
      "æĶ¯æı´": 7284,
      "Ġsix": 7285,
      "ä¸įåģľ": 7286,
      "äººæ°ĳæ³ķéĻ¢": 7287,
      "Ġrole": 7288,
      "åīĬ": 7289,
      "åħ±è®¡": 7290,
      "Ġinside": 7291,
      "Ġreleased": 7292,
      "Ġmount": 7293,
      "aging": 7294,
      "Ġeffic": 7295,
      "å´ĩ": 7296,
      "04": 7297,
      "å°Ŀè¯ķ": 7298,
      "æ£ĭ": 7299,
      "èĥ¸": 7300,
      "æĭĽåķĨ": 7301,
      "å°ºå¯¸": 7302,
      "Ġneeded": 7303,
      "åħļä¸Ńå¤®": 7304,
      "åıĸå¾ĹäºĨ": 7305,
      "çĸ¼": 7306,
      "Ġeither": 7307,
      "72": 7308,
      "Ġcommercial": 7309,
      "ecut": 7310,
      "ĠChristmas": 7311,
      "Ġpicture": 7312,
      "å·¥åħ·": 7313,
      "è¿Ŀåıį": 7314,
      "çĸ«æĥħæľŁéĹ´": 7315,
      "ĠJanuary": 7316,
      "èĭ±è¶ħ": 7317,
      "AG": 7318,
      "Ġplatform": 7319,
      "Ġded": 7320,
      "çŃīå¾ħ": 7321,
      "åĪĿæŃ¥": 7322,
      "èĶ¬èıľ": 7323,
      "Ġbedroom": 7324,
      "Ġpretty": 7325,
      "ST": 7326,
      "selves": 7327,
      "Ġpictures": 7328,
      "æĺ¯ä¸į": 7329,
      "89": 7330,
      "ĠDirect": 7331,
      "Ġprem": 7332,
      "åĩºéĹ¨": 7333,
      "åĿĳ": 7334,
      "ĠAssoci": 7335,
      "Ġæį®æĤī": 7336,
      "åľ¨æŃ¤": 7337,
      "izing": 7338,
      "å±ħå®¶": 7339,
      "Ġsave": 7340,
      "Ġrisk": 7341,
      "çĽ¸åħ³éĥ¨éĹ¨": 7342,
      "Ġä½Ĩæĺ¯": 7343,
      "çļĦçĶŁæ´»": 7344,
      "çŁĽ": 7345,
      "éķľå¤´": 7346,
      "æıı": 7347,
      "å·ħå³°": 7348,
      "ĠSoc": 7349,
      "ĠGl": 7350,
      "æł·åŃĲ": 7351,
      "é¦¨": 7352,
      "ĠSan": 7353,
      "Ġcommunic": 7354,
      "Ġdifficult": 7355,
      "éĽ¶åĶ®": 7356,
      "æīĭæ®µ": 7357,
      "ĠSk": 7358,
      "Ġregular": 7359,
      "èĶĵ": 7360,
      "ĠTV": 7361,
      "å·®è·Ŀ": 7362,
      "åıĺæĪĲ": 7363,
      "åłµ": 7364,
      "äº®çĤ¹": 7365,
      "æŃ¦æ±īå¸Ĥ": 7366,
      "Ġimpact": 7367,
      "åĵ¦": 7368,
      "çĽĳå¯Ł": 7369,
      "Ġprices": 7370,
      "opping": 7371,
      "ores": 7372,
      "Ġdraw": 7373,
      "åĳ¼åĲ¸": 7374,
      "ĠRed": 7375,
      "Ġsitu": 7376,
      "Ġlay": 7377,
      "è¸¢": 7378,
      "é¦ĸä¸ª": 7379,
      "Ġproduction": 7380,
      "ä¹īåĬ¡": 7381,
      "Ġstandard": 7382,
      "ç§ĺä¹¦": 7383,
      "ç§ĳçłĶ": 7384,
      "è¯ķéªĮ": 7385,
      "è½¯ä»¶": 7386,
      "Ġpotential": 7387,
      "umn": 7388,
      "æ²³åįĹçľģ": 7389,
      "rom": 7390,
      "å¥½äºĨ": 7391,
      "uk": 7392,
      "Ġdam": 7393,
      "ä¸¤ä½į": 7394,
      "Ġexplo": 7395,
      "åħ¨æ°ĳ": 7396,
      "ĠIns": 7397,
      "å¦Ļ": 7398,
      "åĩºéģĵ": 7399,
      "Ġaw": 7400,
      "å¤ĩåıĹ": 7401,
      "CT": 7402,
      "çŃīçº§": 7403,
      "Ġuser": 7404,
      "éĢ¼": 7405,
      "91": 7406,
      "çłĶç©¶éĻ¢": 7407,
      "éĥ½å¸Ĥ": 7408,
      "æĹ¨": 7409,
      "Ġsell": 7410,
      "Ġfloor": 7411,
      "å¤®è§Ĩ": 7412,
      "æĿ¡ä¾ĭ": 7413,
      "äºļæ´²": 7414,
      "éĺ²æ²»": 7415,
      "ĠMus": 7416,
      "æľĢå¤ļ": 7417,
      "èĥ¶": 7418,
      "äººç±»": 7419,
      "Ġthird": 7420,
      "Ġconsum": 7421,
      "ç»µ": 7422,
      "Ġmark": 7423,
      "çļĦè¦ģæ±Ĥ": 7424,
      "Ġcrit": 7425,
      "Ġpurchase": 7426,
      "è¯¾åłĤ": 7427,
      "èİ·å¾ĹäºĨ": 7428,
      "è¢«åĬ¨": 7429,
      "Ġrent": 7430,
      "é¢ĦæľŁ": 7431,
      "åĲĮæĦı": 7432,
      "ç»ĺ": 7433,
      "éĥĳå·ŀ": 7434,
      "å¹´åĪĿ": 7435,
      "æīĢè°ĵ": 7436,
      "åĽ¢ç»ĵ": 7437,
      "ä¾ĽåºĶåķĨ": 7438,
      "æľĢå¥½": 7439,
      "BC": 7440,
      "çļĦè½¦": 7441,
      "ĠLet": 7442,
      "å¿«ä¹Ĳ": 7443,
      "åĲĲæ§½": 7444,
      "Ġsafe": 7445,
      "ä¸Ĭå¸Ĥåħ¬åı¸": 7446,
      "å®ŀçİ°äºĨ": 7447,
      "è¸ı": 7448,
      "åŁ¹èĤ²": 7449,
      "Ġgradu": 7450,
      "èĥĨ": 7451,
      "Ġentry": 7452,
      "èĮĤ": 7453,
      "Ġrelationship": 7454,
      "åħļæĶ¯éĥ¨": 7455,
      "ä¸»åľº": 7456,
      "63": 7457,
      "æŀĦå»º": 7458,
      "Ġdom": 7459,
      "Ġround": 7460,
      "è°Ĳ": 7461,
      "Ġtypes": 7462,
      "Ġcir": 7463,
      "ç¾¤ä½ĵ": 7464,
      "Ġexcellent": 7465,
      "æ¯ıæĹ¥": 7466,
      "Ġrelated": 7467,
      "çļĦä¸ī": 7468,
      "åħ¨å¹´": 7469,
      "é¦ĸåıĳ": 7470,
      "åĸĬ": 7471,
      "äººçĶŁ": 7472,
      "åĨ³çŃĸ": 7473,
      "åĲīåĪ©": 7474,
      "Ġcareer": 7475,
      "è¾Ī": 7476,
      "ĠBook": 7477,
      "ole": 7478,
      "over": 7479,
      "éĵŃ": 7480,
      "Ġfeature": 7481,
      "åĳĬè¯īè®°èĢħ": 7482,
      "æĲŃè½½": 7483,
      "è¶ħè¶Ĭ": 7484,
      "çĲĨæĥ³": 7485,
      "å¤§æķ°æį®": 7486,
      "Ġdisplay": 7487,
      "ĠMonday": 7488,
      "çĪ¸çĪ¸": 7489,
      "Ġchalleng": 7490,
      "isc": 7491,
      "èĦı": 7492,
      "è´¤": 7493,
      "çĽ¸åºĶ": 7494,
      "ĠOctober": 7495,
      "ĠHol": 7496,
      "Ġcouple": 7497,
      "62": 7498,
      "å¤«å¦»": 7499,
      "used": 7500,
      "ä½¿åĳ½": 7501,
      "Ġbehind": 7502,
      "è¿ĽçĲĥ": 7503,
      "arth": 7504,
      "Ġfurther": 7505,
      "Ġlives": 7506,
      "ĠSal": 7507,
      "Sh": 7508,
      "ĠCalif": 7509,
      "Ġmatch": 7510,
      "è¢«åĳĬ": 7511,
      "é¥±": 7512,
      "å¼ºçĥĪ": 7513,
      "ç»¼èīº": 7514,
      "æķ¦": 7515,
      "åıĹä¼¤": 7516,
      "Ġrestaur": 7517,
      "å¯»æī¾": 7518,
      "Ġeasily": 7519,
      "æłħ": 7520,
      "Ġparts": 7521,
      "æ¡Īä¾ĭ": 7522,
      "æ¯«ç±³": 7523,
      "çĮľ": 7524,
      "çĶ»éĿ¢": 7525,
      "å¦®": 7526,
      "æĢĿè·¯": 7527,
      "ä»ħä»ħ": 7528,
      "Ġreading": 7529,
      "æ³ķè§Ħ": 7530,
      "åħ±äº§åħļ": 7531,
      "Ġbad": 7532,
      "æ»´": 7533,
      "äºīè®®": 7534,
      "Ġincluded": 7535,
      "Ġweekend": 7536,
      "äººå·¥": 7537,
      "AèĤ¡": 7538,
      "èĸĩ": 7539,
      "å¤ªéĺ³": 7540,
      "ashion": 7541,
      "æĻ®éģį": 7542,
      "æ¶Ĥ": 7543,
      "äººæ°Ķ": 7544,
      "çĽĴ": 7545,
      "åĮ»æĬ¤äººåĳĺ": 7546,
      "Ġ--": 7547,
      ")ï¼Į": 7548,
      "ĠHis": 7549,
      "Ġ40": 7550,
      "Ġæĸ°åįİç¤¾": 7551,
      "è¯ŀ": 7552,
      "æģ°": 7553,
      "ession": 7554,
      "èĥĮåĲİ": 7555,
      "Ġpiece": 7556,
      "Ġprofession": 7557,
      "oes": 7558,
      "Ġcal": 7559,
      "å¼ĢåıĳåĮº": 7560,
      "è¿ĩçļĦ": 7561,
      "ãĢĮ": 7562,
      "çĲ´": 7563,
      "ä¼ĺåħĪ": 7564,
      "æķ°åŃ¦": 7565,
      "Ġrad": 7566,
      "oke": 7567,
      "Ġ2012": 7568,
      "èĩ´å¯Į": 7569,
      "é£ĺ": 7570,
      "å¤§å®¶éĥ½": 7571,
      "Ġteac": 7572,
      "imum": 7573,
      "å¤ļå®¶": 7574,
      "éĶĲ": 7575,
      "OP": 7576,
      "çļĦä¸ŃåĽ½": 7577,
      "Ġill": 7578,
      "Ġbooks": 7579,
      "rem": 7580,
      "å¸ĪèĮĥ": 7581,
      "Ġsent": 7582,
      "äºĨä¸ĢäºĽ": 7583,
      "åĪĨåĪ«æĺ¯": 7584,
      "å¤įäº§": 7585,
      "Ġfram": 7586,
      "è®©ä½ł": 7587,
      "Ġlooks": 7588,
      "å°ıç±³": 7589,
      "æĪĺç»©": 7590,
      "Ġphoto": 7591,
      "ä¸ĢçĽ´åľ¨": 7592,
      "Ġglobal": 7593,
      "ĠJuly": 7594,
      "ãĢĤãĢĬ": 7595,
      "Ġabs": 7596,
      "ishing": 7597,
      "èģļéĽĨ": 7598,
      "çĽ´åĪ°": 7599,
      "iture": 7600,
      "çİ¯å¢ĥä¿ĿæĬ¤": 7601,
      "è§Ĵåº¦": 7602,
      "//": 7603,
      "itect": 7604,
      "Ġgold": 7605,
      "å¹¿æĴŃ": 7606,
      "ç²¾èĭ±": 7607,
      "âĢĿãĢģ": 7608,
      "ffic": 7609,
      "02": 7610,
      "æ²»æĦĪ": 7611,
      "Ġseem": 7612,
      "åĪ°æĿ¥": 7613,
      "éĽ¯": 7614,
      "ä¸ŃåĽ½çļĦ": 7615,
      "ĠChar": 7616,
      "ĠSeptember": 7617,
      "gress": 7618,
      "Ġæľī": 7619,
      "æľįåĬ¡ä¸Ńå¿ĥ": 7620,
      "å¤ļåĲį": 7621,
      "light": 7622,
      "Ġscreen": 7623,
      "æĸ°éĹ»ç½ĳ": 7624,
      "69": 7625,
      "èıĮ": 7626,
      "æ¢ħè¥¿": 7627,
      "æ¬§åħĥ": 7628,
      "82": 7629,
      "Ġsolution": 7630,
      "Ġstruct": 7631,
      "å¾Īé«ĺ": 7632,
      "ĠMore": 7633,
      "put": 7634,
      "åľ¨è¿ĻéĩĮ": 7635,
      "hel": 7636,
      "åı°é£İ": 7637,
      "Ġissue": 7638,
      "ç§©": 7639,
      "æ¯Ķäºļ": 7640,
      "åħ¥éĢī": 7641,
      "èĶĵå»¶": 7642,
      "IL": 7643,
      "é«ĺåº¦éĩįè§Ĩ": 7644,
      "Ġaim": 7645,
      "ä¿©": 7646,
      "å®ŀéĻħä¸Ĭ": 7647,
      "ĠOut": 7648,
      "æŃ£ç¡®": 7649,
      "Ġsqu": 7650,
      "Ġchanges": 7651,
      "è®¤åı¯": 7652,
      "å®¡æł¸": 7653,
      "2012": 7654,
      "ovember": 7655,
      "åĩºåİ»": 7656,
      "å¤§æ¦Ĥ": 7657,
      "è¿ĲåĬ¨åĳĺ": 7658,
      "åħĦå¼Ł": 7659,
      "Ġnice": 7660,
      "Ġapply": 7661,
      "ä¸ĬçıŃ": 7662,
      "Ġfinal": 7663,
      "Ġtrying": 7664,
      "ä½Ĩåľ¨": 7665,
      "è¿Ļä¸Ģæ¬¡": 7666,
      "äººæ°ĳåĮ»éĻ¢": 7667,
      "Ġemb": 7668,
      "cover": 7669,
      "è¯ģä¹¦": 7670,
      "Ġgeneral": 7671,
      "ç§©åºı": 7672,
      "æ±ª": 7673,
      "iding": 7674,
      "Ġbal": 7675,
      "è¿½æ±Ĥ": 7676,
      "èĤĮ": 7677,
      "Ġexact": 7678,
      "ä¼łæī¿": 7679,
      "ä¸Ģä¸ªäºº": 7680,
      "å¤§å®¶å¥½": 7681,
      "å¾ĹçŁ¥": 7682,
      "Ġassoci": 7683,
      "Ġmedical": 7684,
      "å®¶åºĦ": 7685,
      "æ£Ĵ": 7686,
      "ĠTechn": 7687,
      "ĠService": 7688,
      "è®°å¾Ĺ": 7689,
      "ĠAmerica": 7690,
      "ĠIndia": 7691,
      "Ġdress": 7692,
      "olf": 7693,
      "ç¦ģæŃ¢": 7694,
      "Ġlate": 7695,
      "é»ĳèī²çļĦ": 7696,
      "ä¾¿åĪ©": 7697,
      "Ġplant": 7698,
      "Ġdoor": 7699,
      "å®¶ä¸Ń": 7700,
      "å·¡è§Ĩ": 7701,
      "å¾ĭå¸Ī": 7702,
      "board": 7703,
      "åĲįä¸º": 7704,
      "å®½æĿ¾": 7705,
      "Ġforward": 7706,
      "Ġwedding": 7707,
      "æĭĴç»Ŀ": 7708,
      "å§ľ": 7709,
      "ãĢį": 7710,
      "å°ĺ": 7711,
      "äºĮæĺ¯": 7712,
      "äººæ°ĳåħ±åĴĮåĽ½": 7713,
      "hood": 7714,
      "ĠDav": 7715,
      "åĲ¬åıĸ": 7716,
      "ipe": 7717,
      "åıĤåĬłäºĨ": 7718,
      "åħļåĳĺå¹²éĥ¨": 7719,
      "reg": 7720,
      "Ġå½ĵ": 7721,
      "Ġcharacter": 7722,
      "Ġdecided": 7723,
      "å¤§éģĵ": 7724,
      "Ġrelease": 7725,
      "èĦī": 7726,
      "éĢīæĭ©äºĨ": 7727,
      "Ġoutside": 7728,
      "ached": 7729,
      "éĢ¾": 7730,
      "é«ĺå³°": 7731,
      "Ġtreatment": 7732,
      "artment": 7733,
      "ä»ĸè¯´": 7734,
      "è¶ħå¸Ĥ": 7735,
      "Ġdeg": 7736,
      "å£°éŁ³": 7737,
      "ried": 7738,
      "Ġanything": 7739,
      "ä¹Łå°Ĩ": 7740,
      "æįĲæ¬¾": 7741,
      "Ġstudent": 7742,
      "æľĢå¥½çļĦ": 7743,
      "åħ¬å¯ĵ": 7744,
      "nam": 7745,
      "æİ¥å¾ħ": 7746,
      "Ġlit": 7747,
      "Ġgreen": 7748,
      "ĠKe": 7749,
      "å®ĺåħµ": 7750,
      "é¢ĦèŃ¦": 7751,
      "Ġfeed": 7752,
      "Ġstat": 7753,
      "Ġanyone": 7754,
      "ç¾¡": 7755,
      "ä¸¤æ¬¡": 7756,
      "Ġtotal": 7757,
      "ules": 7758,
      "å®Ŀå®Ŀ": 7759,
      "æµĻæ±Łçľģ": 7760,
      "éĻįéĽ¨": 7761,
      "å¹´ä»£": 7762,
      "å¢ŀéĢŁ": 7763,
      "éŁµ": 7764,
      "Ġposition": 7765,
      "éĦĤ": 7766,
      "å¥¹ä»¬": 7767,
      "æĬ¥èŃ¦": 7768,
      "ä¼ģä¸ļçļĦ": 7769,
      "Ġusually": 7770,
      "Cç½Ĺ": 7771,
      "å¤§éĻĨ": 7772,
      "é«ĺæ¸©": 7773,
      "ĠSim": 7774,
      "ï¿½ï¿½ï¿½ï¿½ï¿½ï¿½ï¿½ï¿½": 7775,
      "What": 7776,
      "å°±å·²ç»ı": 7777,
      "ruary": 7778,
      "Ġbud": 7779,
      "éĻķè¥¿çľģ": 7780,
      "ç¨Ģ": 7781,
      "åīįçļĦ": 7782,
      "Ġ22": 7783,
      "åħ¨ç¨ĭ": 7784,
      "éĻĮ": 7785,
      "åħ¹": 7786,
      "èĬĿ": 7787,
      "ĠWed": 7788,
      "Ġgift": 7789,
      "Ġexample": 7790,
      "ç²Ĺ": 7791,
      "å®ĥä»¬": 7792,
      "è¿ĺåı¯ä»¥": 7793,
      "çİ©æ³ķ": 7794,
      "æĥħç»ª": 7795,
      "ä¸Ģåĳ¨": 7796,
      "ç«Ļåľ¨": 7797,
      "åĵĪå°Ķ": 7798,
      "iable": 7799,
      "Ġclaim": 7800,
      "Ġdeliver": 7801,
      "åī²": 7802,
      "Ġwar": 7803,
      "Ġdaily": 7804,
      "rown": 7805,
      "ç§¯åĪĨ": 7806,
      "avy": 7807,
      "ç¯®çĲĥ": 7808,
      "ä¸Ńåįİäººæ°ĳåħ±åĴĮåĽ½": 7809,
      "æŁ¥çľĭ": 7810,
      "åħ¥å¢ĥ": 7811,
      "orge": 7812,
      "Ġtick": 7813,
      "èĤ¡ä»·": 7814,
      "è¿ĲçĶ¨": 7815,
      "ä¾¨": 7816,
      "Ġbusinesses": 7817,
      "ĠLa": 7818,
      "åİŁåĪĽ": 7819,
      "ara": 7820,
      "åĿļå®ļ": 7821,
      "Ġcondition": 7822,
      "æ³ķæ²»": 7823,
      "ĠClick": 7824,
      "åŁİå¸ĤçļĦ": 7825,
      "èģĶç³»æĸ¹å¼ı": 7826,
      "pose": 7827,
      "æıĲä¾ĽäºĨ": 7828,
      "ĠPresident": 7829,
      "ornia": 7830,
      "åĩºåıĳ": 7831,
      "zz": 7832,
      "ĠWell": 7833,
      "æĭ¨": 7834,
      "æī¹æ¬¡": 7835,
      "åĲĪä½ľç¤¾": 7836,
      "Pro": 7837,
      "å®īç½®": 7838,
      "ams": 7839,
      "06": 7840,
      "org": 7841,
      "Ġep": 7842,
      "å¹¶åľ¨": 7843,
      "åĪ°è¾¾": 7844,
      "åħ´è¶£": 7845,
      "æķ´åĲĪ": 7846,
      "79": 7847,
      "å¤įæĿĤ": 7848,
      "ä¸Ģå®ļçļĦ": 7849,
      "æļĤæĹ¶": 7850,
      "åŃ¦ä¼ļ": 7851,
      "å¹¶éĿŀ": 7852,
      "åĬŀäºĭ": 7853,
      "çİ¯æ¯Ķ": 7854,
      "ension": 7855,
      "ray": 7856,
      "èĢĥçłĶ": 7857,
      "åıĳæĸĩ": 7858,
      "éĢĤåºĶ": 7859,
      "çªĹåı£": 7860,
      "ä¸Ģå¸¦": 7861,
      "èµ¢å¾Ĺ": 7862,
      "Ġplanning": 7863,
      "è·¯ä¸Ĭ": 7864,
      "Ġground": 7865,
      "hest": 7866,
      "Ġwarm": 7867,
      "Ġfurn": 7868,
      "äººéĥ½": 7869,
      "å¸¸è§ģ": 7870,
      "è®²è¿°": 7871,
      "å¸¸åĬ¡": 7872,
      "é¡¹çĽ®çļĦ": 7873,
      "Ġglass": 7874,
      "åįģäºĮ": 7875,
      "èį¡": 7876,
      "Ġgrowth": 7877,
      "èĬ¯": 7878,
      "Ġboard": 7879,
      "ä¸Ģçº§": 7880,
      "Ġsty": 7881,
      "Ġleaders": 7882,
      "Ġtrue": 7883,
      "åıĬåħ¶": 7884,
      "Ġsignific": 7885,
      "Ġgoal": 7886,
      "è¾°": 7887,
      "æ±°": 7888,
      "Ġdeep": 7889,
      "çĽĳå±Ģ": 7890,
      "ĠServices": 7891,
      "å¯¼æ¼Ķ": 7892,
      "Ġcand": 7893,
      "Ġworked": 7894,
      "æ¸ħåįİ": 7895,
      "èĳĹåĲį": 7896,
      "æ¸ħçĲĨ": 7897,
      "èįĴ": 7898,
      "ĠEach": 7899,
      "Ġprograms": 7900,
      "Ġtraditional": 7901,
      "ĠæĿ¨": 7902,
      "ington": 7903,
      "åĵªéĩĮ": 7904,
      "èĪªçıŃ": 7905,
      "83": 7906,
      "ç®Ģçº¦": 7907,
      "èµĽåľº": 7908,
      "Ġcenter": 7909,
      "74": 7910,
      "æľĢä¸º": 7911,
      "åŃ¦çĶŁçļĦ": 7912,
      "800": 7913,
      "mon": 7914,
      "å¸¦æĿ¥äºĨ": 7915,
      "ç¿¼": 7916,
      "å»Ĭ": 7917,
      "è£Ĥ": 7918,
      "aced": 7919,
      "Ġpublished": 7920,
      "åĿª": 7921,
      "ĠAfric": 7922,
      "istic": 7923,
      "ades": 7924,
      "æĳĦå½±": 7925,
      "éĿ¢åĲĳ": 7926,
      "éħįå¤ĩ": 7927,
      "ĠBusiness": 7928,
      "lier": 7929,
      "Ġcam": 7930,
      "åŃŁ": 7931,
      "ĠWar": 7932,
      "è¶³å¤Ł": 7933,
      "key": 7934,
      "Ġtrip": 7935,
      "å¢ĥåĨħ": 7936,
      "å¼Ģå¿ĥ": 7937,
      "Ġaccept": 7938,
      "ä¸ĩå¹³æĸ¹ç±³": 7939,
      "Ġsche": 7940,
      "è¯¢éĹ®": 7941,
      "æĬĵå¥½": 7942,
      "æĸ°åŀĭåĨłçĬ¶çĹħæ¯ĴèĤºçĤİ": 7943,
      "åĩºç§Ł": 7944,
      "è¿Ľåı£": 7945,
      "Ġobject": 7946,
      "Ġrate": 7947,
      "nal": 7948,
      "åĴĮç¤¾ä¼ļ": 7949,
      "ä½ĵæ¸©": 7950,
      "è¯ĪéªĹ": 7951,
      "Ġnational": 7952,
      "è¿ĩäºİ": 7953,
      "ï¼Ĵ": 7954,
      "Ġapplications": 7955,
      "ffee": 7956,
      "çº½çº¦": 7957,
      "Ġdest": 7958,
      "è¿İæİ¥": 7959,
      "73": 7960,
      "æĥħåĨµä¸ĭ": 7961,
      "çŁĽçĽ¾": 7962,
      "éĩĩè®¿æĹ¶": 7963,
      "æľĢå¼º": 7964,
      "åıįèĢĮ": 7965,
      "Ġpaint": 7966,
      "åģļæ³ķ": 7967,
      "è¿ĺå°Ĩ": 7968,
      "æł¼æłħ": 7969,
      "ç´łè´¨": 7970,
      "åĴĮè°Ĳ": 7971,
      "çľģå¸Ĥ": 7972,
      "éģ¥": 7973,
      "Ġleave": 7974,
      "çĮİ": 7975,
      "åŃ©åŃĲçļĦ": 7976,
      "é¦Ī": 7977,
      "ters": 7978,
      "Ġtast": 7979,
      "Ġdream": 7980,
      "å®´": 7981,
      "èĢķ": 7982,
      "ĠNovember": 7983,
      "ĠCoun": 7984,
      "Ġprim": 7985,
      "Ġcateg": 7986,
      "ĠBrit": 7987,
      "Ġroll": 7988,
      "Ġoffering": 7989,
      "eal": 7990,
      "Ġä¸Ńæĸ°ç½ĳ": 7991,
      "Ġbag": 7992,
      "Ġnecess": 7993,
      "partment": 7994,
      "acebook": 7995,
      "åĬ¨åĳĺ": 7996,
      "æĸĩèīº": 7997,
      "èĵ¬": 7998,
      "çļĦä¸»è¦ģ": 7999,
      "Ġqual": 8000,
      "æĬĢå·§": 8001,
      "åĳ½ä¸Ń": 8002,
      "æıĲåĩºäºĨ": 8003,
      "ĠDown": 8004,
      "antly": 8005,
      "Ġadmin": 8006,
      "ä¸Ĭåĳ¨": 8007,
      "æľĪåĪĿ": 8008,
      "åĽ¢æĪĺ": 8009,
      "éģĤ": 8010,
      "Ġenter": 8011,
      "Ġcra": 8012,
      "ä¸įå¤ª": 8013,
      "Ġåīį": 8014,
      "æ³³": 8015,
      "æ°¸è¿ľ": 8016,
      "Ġwords": 8017,
      "çİ°æľī": 8018,
      "æĬ¥èĢĥ": 8019,
      "çļĦä»·æł¼": 8020,
      "Ġsuit": 8021,
      "åİīå®³": 8022,
      "å¤ıå¤©": 8023,
      "åħ¨åĮº": 8024,
      "çĽĳæİ§": 8025,
      "åī¯å¸Ĥéķ¿": 8026,
      "ä¸įåĬ¨": 8027,
      "åıĳåŀĭ": 8028,
      "ford": 8029,
      "ĠPat": 8030,
      "aves": 8031,
      "ä¸ľåįĹ": 8032,
      "Ġdeveloped": 8033,
      "éĥİ": 8034,
      "iddle": 8035,
      "cember": 8036,
      "Ġcoun": 8037,
      "æĪĺèĥľ": 8038,
      "ĠThanks": 8039,
      "wh": 8040,
      "Ġlangu": 8041,
      "ĠPost": 8042,
      "å®īå¾½çľģ": 8043,
      "Ġcert": 8044,
      "åĩĳ": 8045,
      "å§Ķæīĺ": 8046,
      "æ¯ĶèµĽä¸Ń": 8047,
      "æ·ĺæ±°": 8048,
      "Ġbirth": 8049,
      "èĳ¡": 8050,
      "æĺ¾çĦ¶": 8051,
      "ä»¥å¤ĸ": 8052,
      "rect": 8053,
      "ĠClass": 8054,
      "ĠEnglish": 8055,
      "Ġmatter": 8056,
      "ĠIN": 8057,
      "åı¯ä»¥çľĭåĪ°": 8058,
      "ä¸Īå¤«": 8059,
      "Ġjoin": 8060,
      "Ġprobably": 8061,
      "æĽ´ä¸º": 8062,
      "Ġdefin": 8063,
      "arget": 8064,
      "å®ĺç½ĳ": 8065,
      "Ġpercent": 8066,
      "æ½Ń": 8067,
      "çģ¾å®³": 8068,
      "æīĭæ¸¸": 8069,
      "æıĲç¤º": 8070,
      "åįģåħ«å¤§": 8071,
      "ĠMich": 8072,
      "Ġincrease": 8073,
      "Ġaward": 8074,
      "çŃĶæ¡Ī": 8075,
      "æ°ĳä¼Ĺ": 8076,
      "æŁ¥å¤Ħ": 8077,
      "Ġsubject": 8078,
      "apan": 8079,
      "ipping": 8080,
      "Ġinj": 8081,
      "é¢Ħæµĭ": 8082,
      "ris": 8083,
      "ä¸īåĪĨ": 8084,
      "æĿĥçĽĬ": 8085,
      "Ġsn": 8086,
      "çļĦäºĭ": 8087,
      "ä½İäºİ": 8088,
      "å¯¹éĺµ": 8089,
      "èĮħ": 8090,
      "æħİ": 8091,
      "çľ¼çĿĽ": 8092,
      "ĠFebruary": 8093,
      "æ»©": 8094,
      "åĽŀçŃĶ": 8095,
      "ä»¥å¾Ģ": 8096,
      "lu": 8097,
      "rug": 8098,
      "çĶµè§Ĩåı°": 8099,
      "è§£éĩĬ": 8100,
      "ç©·": 8101,
      "ä¼°è®¡": 8102,
      "Ġgrowing": 8103,
      "ivery": 8104,
      "Ġplans": 8105,
      "oura": 8106,
      "ĠCalifornia": 8107,
      "è¿ĽæĶ»": 8108,
      "Ġquickly": 8109,
      "åħļå§Ķä¹¦è®°": 8110,
      "æĸ¹éĿ¢çļĦ": 8111,
      "éĿĴå°ĳå¹´": 8112,
      "å°½å¿«": 8113,
      "å´©": 8114,
      "çĭ±": 8115,
      "MS": 8116,
      "iles": 8117,
      "ĠAng": 8118,
      "çļĦéĤ£": 8119,
      "é«ĺæķĪ": 8120,
      "åĢ¡": 8121,
      "ban": 8122,
      "vey": 8123,
      "Ġconstruction": 8124,
      "Ġaction": 8125,
      "éĻ¢å£«": 8126,
      "ography": 8127,
      "å¸¸æĢģ": 8128,
      "ä½ĵåĪ¶": 8129,
      "ĠEast": 8130,
      "Ġfully": 8131,
      "ama": 8132,
      "èĬ¬": 8133,
      "Ġç¬¬ä¸Ģ": 8134,
      "æĶ¿åĬ¡": 8135,
      "è¾ĥå¤§": 8136,
      "ĠCle": 8137,
      "å¦¥": 8138,
      "ought": 8139,
      "Ġformer": 8140,
      "çļĦéĢłåŀĭ": 8141,
      "ç½ĳåıĭä»¬": 8142,
      "à¤": 8143,
      "çļĦä½įç½®": 8144,
      "é¦ĸå¸Ń": 8145,
      "Ġç¬¬äºĮ": 8146,
      "å¹´è½»äºº": 8147,
      "è½©": 8148,
      "æ³¨éĩį": 8149,
      "èŃ¦å¯Ł": 8150,
      "éĢĢå½¹": 8151,
      "å¾Īå°ĳ": 8152,
      "æĪªèĩ³çĽ®åīį": 8153,
      "åħ¬å¸ĥäºĨ": 8154,
      "æ²³åĮĹçľģ": 8155,
      "çĪĨæĸĻ": 8156,
      "èĹ¤": 8157,
      "ç§°åı·": 8158,
      "Ġcell": 8159,
      "åıĪæľī": 8160,
      "çļĦçļ®èĤ¤": 8161,
      "å¢ŀåĬłäºĨ": 8162,
      "æµ·åı£": 8163,
      "è§ĤçĤ¹": 8164,
      "ĠThurs": 8165,
      "ä¸Ģä»½": 8166,
      "ä¿¡è®¿": 8167,
      "ï¿½ï¿½ï¿½": 8168,
      "ĠBest": 8169,
      "å¤´åıĳ": 8170,
      "æľīæ²¡æľī": 8171,
      "Ġhomes": 8172,
      "://": 8173,
      "Ġclub": 8174,
      "Ġsafety": 8175,
      "Ġseek": 8176,
      "aign": 8177,
      "ooth": 8178,
      "åĴĸ": 8179,
      "Ġlif": 8180,
      "ĠGener": 8181,
      "ä¸Ģæ®µæĹ¶éĹ´": 8182,
      "è¾ĥä¸º": 8183,
      "æľīæľĽ": 8184,
      "Ġfirm": 8185,
      "ä¸İæŃ¤": 8186,
      "ĠRec": 8187,
      "çŁ©": 8188,
      "åĴ±": 8189,
      "Ġseems": 8190,
      "ä»£çĲĨæľºæŀĦ": 8191,
      "eds": 8192,
      "å¤ĸåĽ½": 8193,
      "è§£æĶ¾": 8194,
      "ä¸įä¸Ĭ": 8195,
      "ĠDepartment": 8196,
      "éĽ¾": 8197,
      "åĩºèī²": 8198,
      "å·¥äºº": 8199,
      "ĠCollege": 8200,
      "æŃĮæīĭ": 8201,
      "æ¤ħ": 8202,
      "å¼ĺ": 8203,
      "æ¬ł": 8204,
      "Ġexperienced": 8205,
      "ĠHot": 8206,
      "æĺ¥å¤©": 8207,
      "Ġinde": 8208,
      "èĢģåħ¬": 8209,
      "æ¸Ŀ": 8210,
      "æĺ¥åŃ£èµĽ": 8211,
      "åıĹåĪ°äºĨ": 8212,
      "æĸ°åŀĭåĨłçĬ¶çĹħæ¯ĴæĦŁæŁĵ": 8213,
      "door": 8214,
      "uel": 8215,
      "ï¼ĭ": 8216,
      "Ġisn": 8217,
      "æĹ©åľ¨": 8218,
      "amb": 8219,
      "æľĪçļĦ": 8220,
      "çĻ¾ä¸ĩ": 8221,
      "ĠAugust": 8222,
      "äºŃ": 8223,
      "åĪĨç±»": 8224,
      "æ¯ħ": 8225,
      "ä¼ĳæģ¯": 8226,
      "çĶµèĦĳ": 8227,
      "è°Ń": 8228,
      "å¿ĥéĩĮ": 8229,
      "Ġstop": 8230,
      "åĩĨç¡®": 8231,
      "çĲ¼": 8232,
      "unk": 8233,
      "Ġlargest": 8234,
      "ä¹Łè¢«": 8235,
      "éļ¾é¢ĺ": 8236,
      "Ġsens": 8237,
      "æĶ¿åºľéĩĩè´Ń": 8238,
      "ĠWhy": 8239,
      "è¿ĺæ²¡": 8240,
      "arter": 8241,
      "çħ§é¡¾": 8242,
      "just": 8243,
      "ĠBel": 8244,
      "æŁ¥è¯¢": 8245,
      "è§Ĥçľĭ": 8246,
      "ĠAdd": 8247,
      "åľ°åĮºçļĦ": 8248,
      "ĠTues": 8249,
      "ĠÐ": 8250,
      "ä¸»è¦ģæĺ¯": 8251,
      "ĠMost": 8252,
      "æľ´": 8253,
      "èĤ¡æĿĥ": 8254,
      "åħ°å·ŀ": 8255,
      "ä¸įèµ·": 8256,
      "Ġrequest": 8257,
      "Ġsuggest": 8258,
      "ĠCons": 8259,
      "ä¼łæŁĵ": 8260,
      "Ġasked": 8261,
      "å¤ĸæı´": 8262,
      "ç©Ĩ": 8263,
      "ä¾Ľç»Ļ": 8264,
      "æ¸©æļĸ": 8265,
      "çķĻè¨Ģ": 8266,
      "äººç¾¤": 8267,
      "æ¿ĢçĥĪ": 8268,
      "Our": 8269,
      "çĶŁæĹ¥": 8270,
      "åĬ£": 8271,
      "atory": 8272,
      "éĿ¢åīį": 8273,
      "åŁºäºİ": 8274,
      "åŃĿ": 8275,
      "ä¾Ŀæį®": 8276,
      "ä¸´åºĬ": 8277,
      "ĠGoogle": 8278,
      "dule": 8279,
      "æīĭç»Ń": 8280,
      "ĠProf": 8281,
      "Ġannual": 8282,
      "è¾¾æĪĲ": 8283,
      "è¡¥åĬ©": 8284,
      "æµ·æ´ĭ": 8285,
      "Ġpoints": 8286,
      "ĠDel": 8287,
      "èĦĨ": 8288,
      "bert": 8289,
      "çĥĤ": 8290,
      "Ġmass": 8291,
      "71": 8292,
      "çļĦä¼ģä¸ļ": 8293,
      "ç½ķ": 8294,
      "ĠRead": 8295,
      "Ġfail": 8296,
      "å¤ªåİŁ": 8297,
      "é¡¹çĽ®å»ºè®¾": 8298,
      "æ¼Ķåĩº": 8299,
      "mb": 8300,
      "agn": 8301,
      "åĪºæ¿Ģ": 8302,
      "åĬĿ": 8303,
      "idents": 8304,
      "çļĦè¿Ļ": 8305,
      "çļĦæķĪæŀľ": 8306,
      "åĴ¸": 8307,
      "ĠWednes": 8308,
      "æĴŃåĩº": 8309,
      "Ġbenefits": 8310,
      "æĺ¯ä¸ŃåĽ½": 8311,
      "ĠSystem": 8312,
      "éĥ¨éĺŁ": 8313,
      "å¯¹éĿ¢": 8314,
      "Ġfig": 8315,
      "çĳ¶": 8316,
      "æĥĳ": 8317,
      "clusive": 8318,
      "ä¸Ģæµģ": 8319,
      "ä¿¡åı·": 8320,
      "ĠDecember": 8321,
      "åħģè®¸": 8322,
      "åĩ¸æĺ¾": 8323,
      "è¥¿åĮĹ": 8324,
      "è¾£": 8325,
      "ä¹ĺå®¢": 8326,
      "çīĽä»Ķè£¤": 8327,
      "æľ¬æĸĩ": 8328,
      "illing": 8329,
      "Ġhowever": 8330,
      "Ġwonderful": 8331,
      "åľ°çļĦ": 8332,
      "ĠChina": 8333,
      "åĽ½å®¶çº§": 8334,
      "ç®ĢåįķçļĦ": 8335,
      "è¯ĦéĢī": 8336,
      "Ġguide": 8337,
      "erc": 8338,
      "lim": 8339,
      "Ġgen": 8340,
      "Ġcredit": 8341,
      "èİ¹": 8342,
      "enge": 8343,
      "When": 8344,
      "Ġsurround": 8345,
      "Ġessential": 8346,
      "Ġvehicle": 8347,
      "çĶµåĬĽ": 8348,
      "è¾ħå¯¼": 8349,
      "æĥ³æ³ķ": 8350,
      "Ġpartners": 8351,
      "ĠStreet": 8352,
      "bum": 8353,
      "Ġpolit": 8354,
      "åľºæĻ¯": 8355,
      "åħ¨æĸ°çļĦ": 8356,
      "éĻ·åħ¥": 8357,
      "Ġdocument": 8358,
      "ida": 8359,
      "å°ıåº·": 8360,
      "LE": 8361,
      "ett": 8362,
      "çĸ¯çĭĤ": 8363,
      "å±ŀæĢ§": 8364,
      "åħ¬ä¼Ĺåı·": 8365,
      "Ġdeterm": 8366,
      "åľ¨äºĨ": 8367,
      "ç²¤": 8368,
      "Ġlic": 8369,
      "æĹłéĻĲ": 8370,
      "Ġselection": 8371,
      "æĥ³è±¡": 8372,
      "ĠThursday": 8373,
      "åħĳ": 8374,
      "æ»ļ": 8375,
      "ĠAnt": 8376,
      "Ġhotel": 8377,
      "Ġgives": 8378,
      "å¤ļäºº": 8379,
      "Ġop": 8380,
      "\".": 8381,
      "ä¹ĥ": 8382,
      "è·¯çº¿": 8383,
      "å¤ļåħĥ": 8384,
      "amed": 8385,
      "itut": 8386,
      "è¿ĽæŃ¥": 8387,
      "çļĦéķ¿": 8388,
      "èĲ½æĪ·": 8389,
      "Ġemer": 8390,
      "å·¥ä½ľä¸Ń": 8391,
      "val": 8392,
      "æ¼ĶæĬĢ": 8393,
      "æ¶Į": 8394,
      "èĥ½éĩı": 8395,
      "å¤ĸåĩº": 8396,
      "æĹĭ": 8397,
      "å¹²åĩĢ": 8398,
      "æīĭæľ¯": 8399,
      "åį³åı¯": 8400,
      "Ġball": 8401,
      "è½¬åıĺ": 8402,
      "åĽŀæĿ¥": 8403,
      "Ġconditions": 8404,
      "åı¹": 8405,
      "ä¸Ńä»ĭ": 8406,
      "Ġadditional": 8407,
      "åĽŀå¤į": 8408,
      "æĺ¯ä¸Ģç§į": 8409,
      "æĤ²": 8410,
      "é©¬ä¸Ĭ": 8411,
      "çŁ³å®¶åºĦ": 8412,
      "æ±Ĺ": 8413,
      "ĠSpr": 8414,
      "ä½Ļäºº": 8415,
      "éŁ©ä¿¡": 8416,
      "rial": 8417,
      "åĳ¨çŁ¥": 8418,
      "81": 8419,
      "ç®Ń": 8420,
      "Ġshop": 8421,
      "å®ĮæĪĲäºĨ": 8422,
      "ä¸įå¾Ĺä¸įè¯´": 8423,
      "å¥³ç¥ŀ": 8424,
      "é£Łåĵģå®īåħ¨": 8425,
      "çĪ±çļĦ": 8426,
      "å°Ĩåħ¶": 8427,
      "ç»ŃèĪª": 8428,
      "TS": 8429,
      "æĹ¶è®¸": 8430,
      "ç¦»å©ļ": 8431,
      "é£ŀè¡Į": 8432,
      "åĽ½æľī": 8433,
      "Ġgar": 8434,
      "Ġinterested": 8435,
      "ĠPort": 8436,
      "Ġaffect": 8437,
      "åī¯å±Ģéķ¿": 8438,
      "Ġcat": 8439,
      "ĠMarket": 8440,
      "Ġholiday": 8441,
      "ä¼ĹæīĢ": 8442,
      "åĳĢ": 8443,
      "éĥ½åı¯ä»¥": 8444,
      "ä¸ľéĥ¨": 8445,
      "å¤įå·¥å¤įäº§": 8446,
      "ä¸İæŃ¤åĲĮæĹ¶": 8447,
      "çº±": 8448,
      "Ġagree": 8449,
      "çļĦä¸ĢäºĽ": 8450,
      "house": 8451,
      "èĪŁ": 8452,
      "åı¯èĥ½æĺ¯": 8453,
      "ĠKing": 8454,
      "Ġmultiple": 8455,
      "Ġtouch": 8456,
      "ĠTuesday": 8457,
      "æ¡¶": 8458,
      "ĠTrans": 8459,
      "åħ¬åĬ¡åĳĺ": 8460,
      "ç¼ĸåı·": 8461,
      "æ±Łèĭıçľģ": 8462,
      "ĠAny": 8463,
      "åĽ½æľį": 8464,
      "åģľæŃ¢": 8465,
      "åı¬åĶ¤": 8466,
      "ĠPa": 8467,
      "èĥ½åĲ¦": 8468,
      "æĬĬæı¡": 8469,
      "Ġsold": 8470,
      "çªģåıĳ": 8471,
      "å»¶è¿Ł": 8472,
      "éĢĢä¼ĳ": 8473,
      "åĪĿä¸ī": 8474,
      "èº«ä»½è¯ģ": 8475,
      "Ġorganization": 8476,
      "Ġrout": 8477,
      "Ġdescrib": 8478,
      "åįļçī©": 8479,
      "Ġcreating": 8480,
      "Ġparents": 8481,
      "ĠToday": 8482,
      "éĿ´": 8483,
      "äºĪä»¥": 8484,
      "åİ»ä¸ĸ": 8485,
      "Ġconcern": 8486,
      "irit": 8487,
      "çļĦæĪĲç»©": 8488,
      "æĮĩæĮ¥éĥ¨": 8489,
      "61": 8490,
      "paper": 8491,
      "çľĭåĪ°äºĨ": 8492,
      "èĲĦ": 8493,
      "çĬ¯ç½ªå«Įçĸĳäºº": 8494,
      "ague": 8495,
      "Ġmid": 8496,
      "Ġchance": 8497,
      "å¦Ĥæŀľä½ł": 8498,
      "è¯Ŀé¢ĺ": 8499,
      "ĠWednesday": 8500,
      "éĺ²æŃ¢": 8501,
      "ä¼łå¥ĩ": 8502,
      "å»ºè®¾çļĦ": 8503,
      "ä¸ĭåİ»": 8504,
      "è½°": 8505,
      "abin": 8506,
      "èĳ¡èĲĦ": 8507,
      "ï½ŀ": 8508,
      "çĲª": 8509,
      "æľ¬åĳ¨": 8510,
      "Ġ23": 8511,
      "åħħçĶµ": 8512,
      "æ¢¦æ³ª": 8513,
      "é¡¶çº§": 8514,
      "Ġapproach": 8515,
      "Ġanswer": 8516,
      "Ġlonger": 8517,
      "è¿İæĿ¥äºĨ": 8518,
      "enty": 8519,
      "section": 8520,
      "aches": 8521,
      "æľīä»Ģä¹Ī": 8522,
      "è¡Ķ": 8523,
      "ä¸¤å²¸": 8524,
      "ĠGerm": 8525,
      "åįłæ¯Ķ": 8526,
      "Ġsource": 8527,
      "è¡Įé©¶": 8528,
      "å¾Īå¤ļçİ©å®¶": 8529,
      "Ġresources": 8530,
      "Ġwritten": 8531,
      "Ġconcept": 8532,
      "ç¥ĸåĽ½": 8533,
      "rive": 8534,
      "Ġtold": 8535,
      "Ġmanufacture": 8536,
      "ä¼ĹæīĢåĳ¨çŁ¥": 8537,
      "åıī": 8538,
      "æ¯ıä¸Ģä¸ª": 8539,
      "çºłçº·": 8540,
      "åºĶè¯¥æĺ¯": 8541,
      "Ġupon": 8542,
      "anch": 8543,
      "èį£èªī": 8544,
      "ä¸ĩè¾Ĩ": 8545,
      "åĢ¼å¾Ĺä¸Ģ": 8546,
      "æł¼å±Ģ": 8547,
      "ä¸Ĭæ¼Ķ": 8548,
      "Ġconsult": 8549,
      "wide": 8550,
      "å¹Ĥ": 8551,
      "æĢ»æĬķèµĦ": 8552,
      "Ġcapt": 8553,
      "ä»¥ä¸ĬçļĦ": 8554,
      "å·¥èīº": 8555,
      "åĪĽä½ľ": 8556,
      "æ¢³": 8557,
      "éģ®": 8558,
      "æĿĳçļĦ": 8559,
      "Ġremov": 8560,
      "èģĮè´£": 8561,
      "è¿ľç¨ĭ": 8562,
      "æĿ¥çľĭçľĭ": 8563,
      "è¥¿åįĹ": 8564,
      "off": 8565,
      "ä¼Łå¤§": 8566,
      "èī²å½©": 8567,
      "ooking": 8568,
      "è´µå·ŀçľģ": 8569,
      "åį´æĺ¯": 8570,
      "å³»": 8571,
      "Ġelse": 8572,
      "Ġfix": 8573,
      "where": 8574,
      "çķĻåŃ¦": 8575,
      "Ġcomplex": 8576,
      "äººåĬĽ": 8577,
      "èħ¹": 8578,
      "è®©ä»ĸ": 8579,
      "çĽĨ": 8580,
      "ube": 8581,
      "iant": 8582,
      "åľ¨åĽ½åĨħ": 8583,
      "æ®ĭçĸ¾": 8584,
      "åĽ½åľŁ": 8585,
      "ares": 8586,
      "Ġhuge": 8587,
      "ä¸Ģç³»åĪĹ": 8588,
      "ysis": 8589,
      "åĪĹè½¦": 8590,
      "æīĵçł´": 8591,
      "Ġhands": 8592,
      "ica": 8593,
      "ä¾ĽçĶµ": 8594,
      "Ġsmart": 8595,
      "Ġideal": 8596,
      "Ġlab": 8597,
      "åľ¨äºİ": 8598,
      "æĴŃæĶ¾": 8599,
      "åĤħ": 8600,
      "ples": 8601,
      "æľĢåĲİä¸Ģ": 8602,
      "éĩįè¦ģè®²è¯Ŀ": 8603,
      "Ġstarting": 8604,
      "æĺ¾èĳĹ": 8605,
      "æħĮ": 8606,
      "iber": 8607,
      "èĲ¥æĶ¶": 8608,
      "éĺ²èĮĥ": 8609,
      "Ġ2010": 8610,
      "éĿĸ": 8611,
      "å¯Ĥ": 8612,
      "éªĤ": 8613,
      "ç¾İèĤ¡": 8614,
      "æĸ°æĹ¶ä»£": 8615,
      "Ġstorage": 8616,
      "çĶ¨è½¦": 8617,
      "ä»Ĭå¹´çļĦ": 8618,
      "éĺ¿éĩĮ": 8619,
      "ç¦ıåĪ©": 8620,
      "çĭł": 8621,
      "Ġoption": 8622,
      "æĻĴåĩº": 8623,
      "Ġcontinue": 8624,
      "ivity": 8625,
      "çīĩåĮº": 8626,
      "Ġtrust": 8627,
      "åľ°ä¸ĭ": 8628,
      "Ġblue": 8629,
      "Ġmachine": 8630,
      "çļĦå¥¹": 8631,
      "çħĮ": 8632,
      "åľ¨å®¶éĩĮ": 8633,
      "åįĬèº«": 8634,
      "ĠCheck": 8635,
      "ä¸Ńç§ĭ": 8636,
      "For": 8637,
      "ĠClub": 8638,
      "Ġsuccessful": 8639,
      "åĲİç»Ń": 8640,
      "Ġhelps": 8641,
      "iation": 8642,
      "Ġ+": 8643,
      "ä»ĸäºº": 8644,
      "Ġdirectly": 8645,
      "æ²Ĥ": 8646,
      "å®Įæķ´": 8647,
      "ä¸Ģäºº": 8648,
      "ä¸Ĭåįķ": 8649,
      "åĲĪéĢĤ": 8650,
      "ĠInter": 8651,
      "ç¢į": 8652,
      "Ġactive": 8653,
      "Ġplaying": 8654,
      "Ġappl": 8655,
      "Ġvac": 8656,
      "ç²®é£Ł": 8657,
      "Ġattract": 8658,
      "ä¸ªçĻ¾åĪĨ": 8659,
      "Ġexcept": 8660,
      "åĪ©äºļ": 8661,
      ",\"": 8662,
      "éĩįçĹĩ": 8663,
      "Ġweight": 8664,
      "ĠYear": 8665,
      "èĩªä¿¡": 8666,
      "æĹ©ä¸Ĭ": 8667,
      "ald": 8668,
      "åĲ¬åĪ°": 8669,
      "æ¸ħæĸ°": 8670,
      "çĽ¸åĲĮ": 8671,
      "empt": 8672,
      "Ġsteel": 8673,
      "Ġcraft": 8674,
      "è½¦ç«Ļ": 8675,
      "akers": 8676,
      "çļĦåŁİå¸Ĥ": 8677,
      "ĠJapan": 8678,
      "arant": 8679,
      "è´¦åı·": 8680,
      "äººç¤¾": 8681,
      "è¹Ī": 8682,
      "å¥³æİĴ": 8683,
      "åľºçļĦ": 8684,
      "çĻ½èī²çļĦ": 8685,
      "Ġweather": 8686,
      "è£ĻåŃĲ": 8687,
      "æħĪåĸĦ": 8688,
      "æĥĬèī³": 8689,
      "å¼ĢäºĨ": 8690,
      "roid": 8691,
      "åĵ²": 8692,
      "çĽ¸åħ³è´Łè´£äºº": 8693,
      "ç§ĺä¹¦éķ¿": 8694,
      "ties": 8695,
      "inary": 8696,
      "ä¸¤å¤©": 8697,
      "é¢Ī": 8698,
      "Ġestate": 8699,
      "è¿Ľåº¦": 8700,
      "Ġpers": 8701,
      "ĠCour": 8702,
      "ç¾¿": 8703,
      "ä¹ĭæīĢä»¥": 8704,
      "åħ¬å¹³": 8705,
      "Ġsimilar": 8706,
      "allery": 8707,
      "Ġworth": 8708,
      "æĬĵèİ·": 8709,
      "Ġpatients": 8710,
      "æħ¢æħ¢": 8711,
      "èĽĩ": 8712,
      "Ġborn": 8713,
      "ä¸Ĭè¡£": 8714,
      "æĹ¥æĬ¥éģĵ": 8715,
      "æĸ°åįİç¤¾": 8716,
      "è§£è¯»": 8717,
      "ç¾¡æħķ": 8718,
      "ç»ĵæĿŁåĲİ": 8719,
      "åį§": 8720,
      "Ġmoment": 8721,
      "å¹³ç¨³": 8722,
      "å¼ºå¤§": 8723,
      "ĠOver": 8724,
      "ä¸»ç®¡": 8725,
      "åĽºå®ļ": 8726,
      "Ġprior": 8727,
      "åĲĦèĩª": 8728,
      "erve": 8729,
      "Ġ2011": 8730,
      "ĠMany": 8731,
      "è¿ĩæĿ¥": 8732,
      "å·¨å¤§çļĦ": 8733,
      "Ġbegan": 8734,
      "æīĢæľīçļĦ": 8735,
      "attle": 8736,
      "ĠGold": 8737,
      "rec": 8738,
      "Ġones": 8739,
      "ä¸ªçĻ¾åĪĨçĤ¹": 8740,
      "CS": 8741,
      "Ġfarm": 8742,
      "ibrary": 8743,
      "ç¬¬åħŃ": 8744,
      "å¥½åıĭ": 8745,
      "çºªæ£Ģ": 8746,
      "CP": 8747,
      "æĤł": 8748,
      "åĽ¾ä¹¦": 8749,
      "ipped": 8750,
      "pm": 8751,
      "åĽ½æ°ĳ": 8752,
      "çķľ": 8753,
      "åĨ»": 8754,
      "ä½Ĩæĺ¯åľ¨": 8755,
      "åĭĩå£«": 8756,
      "Ġhous": 8757,
      "Ġheat": 8758,
      "æľ¬çĶ°": 8759,
      "Ġplayers": 8760,
      "çĥŃåº¦": 8761,
      "çĲĨçĶ±": 8762,
      "åľ°çĲĨ": 8763,
      "ç¦ıå·ŀ": 8764,
      "åħ³æ³¨çļĦ": 8765,
      "Ġsurpr": 8766,
      "åıĺæĪĲäºĨ": 8767,
      "çĽ¼": 8768,
      "æŃ¤æĹ¶": 8769,
      "æĭīåħĭ": 8770,
      "ç«ŀæĬĢ": 8771,
      "rench": 8772,
      "ä½İè°ĥ": 8773,
      "çķĻåŃ¦çĶŁ": 8774,
      "Ġwrite": 8775,
      "æ¼ł": 8776,
      "å°±è¢«": 8777,
      "ä¸įç®¡æĺ¯": 8778,
      "Ġnorm": 8779,
      "asons": 8780,
      "ĠRem": 8781,
      "Ġinteresting": 8782,
      "Ġpromot": 8783,
      "å¼ķèµ·äºĨ": 8784,
      "å±±åİ¿": 8785,
      "é¹ħ": 8786,
      "çĵ·": 8787,
      "On": 8788,
      "lock": 8789,
      "æ¬§åĨł": 8790,
      "ĠHall": 8791,
      "Ġåĳ¨": 8792,
      "éĢļè¡Į": 8793,
      "åĨĢ": 8794,
      "è½¦ä¼ģ": 8795,
      "è°±": 8796,
      "è¶³åįı": 8797,
      "é«ĺçŃī": 8798,
      "å¤§å®¶çļĦ": 8799,
      "æħ°éĹ®": 8800,
      "ĠThank": 8801,
      "éķ¿åŁİ": 8802,
      "ĠLaw": 8803,
      "æ°´åĪ©": 8804,
      "æķĻèĤ²åİħ": 8805,
      "roud": 8806,
      "Ġä½ľèĢħ": 8807,
      "bit": 8808,
      "åīįæĿ¥": 8809,
      "äººæ°ĳç¾¤ä¼Ĺ": 8810,
      "Ġbaby": 8811,
      "ĠFind": 8812,
      "There": 8813,
      "åĽ¾çīĩæĿ¥æºĲ": 8814,
      "ude": 8815,
      "Ġdevice": 8816,
      "unt": 8817,
      "Ġclient": 8818,
      "Ġsepar": 8819,
      "å°±ä¸į": 8820,
      "åįģä¸ī": 8821,
      "ĠGreen": 8822,
      "Ġloss": 8823,
      "æľºéģĩ": 8824,
      "ç¾İé£Ł": 8825,
      "Ġfamilies": 8826,
      "ager": 8827,
      "èŁ": 8828,
      "åıĳçĶŁäºĨ": 8829,
      "æĸ°çĶŁ": 8830,
      "Ġsection": 8831,
      "å¤ºåĨł": 8832,
      "NE": 8833,
      "å¤įåı¤": 8834,
      "ĠGood": 8835,
      "åħ¶æ¬¡": 8836,
      "ä¸Ģèº«": 8837,
      "ç¯®æĿ¿": 8838,
      "press": 8839,
      "Ġdry": 8840,
      "åħ¬ä¸»": 8841,
      "å®ģå¤ı": 8842,
      "ä¾Ŀæīĺ": 8843,
      "åģ¶åĥı": 8844,
      "ĠWash": 8845,
      "ä¹³": 8846,
      "åīįèĦ¸": 8847,
      "è®°å¿Ĩ": 8848,
      "æĹŃ": 8849,
      "åĩºçīĪ": 8850,
      "æľīåĬĽ": 8851,
      "é¦ĸå±Ĭ": 8852,
      "åĽ½ä¹Ĵ": 8853,
      "çĥŃè®®": 8854,
      "æĮĤçīĮ": 8855,
      "Ġrev": 8856,
      "æĽ´å¥½çļĦ": 8857,
      "Ġhit": 8858,
      "è·¯æ®µ": 8859,
      "ĠAustralia": 8860,
      "ä¸»è§Ĵ": 8861,
      "æİ¨ä»ĭ": 8862,
      "Ġgarden": 8863,
      "åĲĮåŃ¦ä»¬": 8864,
      "åıĹçĲĨ": 8865,
      "å®ŀä¹ł": 8866,
      "åĲİç¾¿": 8867,
      "ä¸ŃåĽ½åħ±äº§åħļ": 8868,
      "Ġsaw": 8869,
      "æĻ´": 8870,
      "æĺ¯æľī": 8871,
      "åıįé¦Ī": 8872,
      "åĽŀå¿Ĩ": 8873,
      "æį§": 8874,
      "Ġbank": 8875,
      "å¤©çĦ¶": 8876,
      "äºĳåįĹçľģ": 8877,
      "IM": 8878,
      "Ġhealthy": 8879,
      "èģĶåĬ¨": 8880,
      "Ġnothing": 8881,
      "æ¥¼çĽĺ": 8882,
      "Ġrequirements": 8883,
      "ä½ľé£İ": 8884,
      "ä¸ŃéĹ´": 8885,
      "åĽĽå¤§": 8886,
      "åľ¨åħ¨åĽ½": 8887,
      "åĵĪå°Ķæ»¨": 8888,
      "ĠDist": 8889,
      "estival": 8890,
      "ä¹Łè®©": 8891,
      "pped": 8892,
      "çĴĥ": 8893,
      "amic": 8894,
      "aged": 8895,
      "åıĶ": 8896,
      "è¯´æ³ķ": 8897,
      "Ġattention": 8898,
      "æĬķè¯ī": 8899,
      "Ġdrink": 8900,
      "å±ıå¹ķ": 8901,
      "zy": 8902,
      "æĶĢ": 8903,
      "æ°ı": 8904,
      "èĻ¹": 8905,
      "çĶµåĬ¨è½¦": 8906,
      "Ġband": 8907,
      "ĠSince": 8908,
      "ä¸īäºļ": 8909,
      "æ¤įçī©": 8910,
      "Ġrepair": 8911,
      "èľĤ": 8912,
      "æĹ¥åĩĮæĻ¨": 8913,
      "çĸ«èĭĹ": 8914,
      "éĢļçĶ¨": 8915,
      "WE": 8916,
      "ä¸Ģå¤§": 8917,
      "æĭĽæłĩæĸĩä»¶": 8918,
      "å°±è¿ŀ": 8919,
      "çº¿ç´¢": 8920,
      "å¤§è¿ŀ": 8921,
      "æķ´çĲĨ": 8922,
      "Ġafford": 8923,
      "åıĹçĸ«æĥħå½±åĵį": 8924,
      "æłĳç«ĭ": 8925,
      "èµ£": 8926,
      "å¸Ĥå§Ķä¹¦è®°": 8927,
      "éĥģ": 8928,
      "Ġmat": 8929,
      "åĲĮæŃ¥": 8930,
      "ä¸¤åĲį": 8931,
      "Ġachieve": 8932,
      "Ġability": 8933,
      "ault": 8934,
      "ä»ĸæĺ¯": 8935,
      "ç»´æĮģ": 8936,
      "å¼ıçļĦ": 8937,
      "ĠPhot": 8938,
      "ĠAN": 8939,
      "å°ģéĹŃ": 8940,
      "æ¾³å¤§åĪ©": 8941,
      "æĪĳä»¬å°±": 8942,
      "æĢİæł·": 8943,
      "Ġpages": 8944,
      "å¤¹": 8945,
      "ĠWhite": 8946,
      "Ġcountries": 8947,
      "ength": 8948,
      "éĴ»çŁ³": 8949,
      "idential": 8950,
      "çłį": 8951,
      "å¤ĦåĪĨ": 8952,
      "iol": 8953,
      "%ãĢģ": 8954,
      "è´Ŀå°Ķ": 8955,
      "Ġinvolved": 8956,
      "Ġcreative": 8957,
      "istry": 8958,
      "ĠPlay": 8959,
      "Ġhighest": 8960,
      "æ¾³å¤§åĪ©äºļ": 8961,
      "Ġaverage": 8962,
      "mod": 8963,
      "åĨįåº¦": 8964,
      "Ġcampaign": 8965,
      "LED": 8966,
      "éĴī": 8967,
      "mark": 8968,
      "å±ħçĦ¶": 8969,
      "Ġterms": 8970,
      "ĠAv": 8971,
      "èŀįåħ¥": 8972,
      "Ġtask": 8973,
      "ä¼½": 8974,
      "æī¶æĮģ": 8975,
      "å»¶éķ¿": 8976,
      "æĸ°éĹ»åıĳå¸ĥä¼ļ": 8977,
      "Ġmessage": 8978,
      "ĠCr": 8979,
      "æŀĿ": 8980,
      "çĬ¹": 8981,
      "çļĦç©¿æĲŃ": 8982,
      "Ġregion": 8983,
      "æİĪæĿĥ": 8984,
      "Ġrespect": 8985,
      "FC": 8986,
      "itute": 8987,
      "âĢĿâĢľ": 8988,
      "å¤ªå¤ļ": 8989,
      "æľ¬åľ°": 8990,
      "é©»æĿĳ": 8991,
      "Ġneigh": 8992,
      "æ°§": 8993,
      "Ġcy": 8994,
      "ç³ķ": 8995,
      "field": 8996,
      "äºĶä¸ª": 8997,
      "å°ĳæķ°": 8998,
      "äºĭå®ŀä¸Ĭ": 8999,
      "Ġclassic": 9000,
      "æĿĳéĩĮ": 9001,
      "iction": 9002,
      "ĠæĹ¥åīį": 9003,
      "æº¢": 9004,
      "ĠWindows": 9005,
      "å¾ĹåĪĨ": 9006,
      "Ġprevent": 9007,
      "erous": 9008,
      "Ġtim": 9009,
      "GDP": 9010,
      "æĸĩåŃĹ": 9011,
      "ma": 9012,
      "æĸ¹çļĦ": 9013,
      "oul": 9014,
      "å®£ä¼łéĥ¨": 9015,
      "åĺīå®¾": 9016,
      "enior": 9017,
      "æĬĽ": 9018,
      "Ġlegal": 9019,
      "å¤ķ": 9020,
      "çİ»": 9021,
      "å®¶ä¹¡": 9022,
      "Ġcross": 9023,
      "ç¡ķå£«": 9024,
      "æłª": 9025,
      "æĢ¡": 9026,
      "è¿ĻæĿ¡": 9027,
      "åħ¬å®īæľºåħ³": 9028,
      "æķĳæ²»": 9029,
      "ĠCompany": 9030,
      "å°ļæľª": 9031,
      "ĠThen": 9032,
      "é¼ł": 9033,
      "Ġpattern": 9034,
      "ological": 9035,
      "çĥŃæĥħ": 9036,
      "des": 9037,
      "æīŃ": 9038,
      "Ġ26": 9039,
      "duc": 9040,
      "porate": 9041,
      "Ġopportunities": 9042,
      "åŃ¦ä½į": 9043,
      "Ġhistor": 9044,
      "Ġfine": 9045,
      "ĠLoc": 9046,
      "è·Įå¹ħ": 9047,
      "æĺİçĻ½": 9048,
      "å¹¶æľª": 9049,
      "Ġmax": 9050,
      "éĺŁéķ¿": 9051,
      "æ¸©æŁĶ": 9052,
      "ads": 9053,
      "éĢļä¿¡": 9054,
      "å¼ºåº¦": 9055,
      "åĲĦéĥ¨éĹ¨": 9056,
      "äº§èĥ½": 9057,
      "ĠWhether": 9058,
      "æģ¤": 9059,
      "ä¼ļçļĦ": 9060,
      "æ»ĭ": 9061,
      "Ġ28": 9062,
      "Ġè¿Ļä¸ª": 9063,
      "Ġult": 9064,
      "æŀĹä¸ļ": 9065,
      "âĢĿãĢģâĢľ": 9066,
      "åįłæį®": 9067,
      "èµ°åĲĳ": 9068,
      "æĪ´åı£ç½©": 9069,
      "å¤ĩæ¡Ī": 9070,
      "çĸ«æĥħéĺ²æİ§å·¥ä½ľ": 9071,
      "æ¯Ľè¡£": 9072,
      "è®¤å®ļ": 9073,
      "å®¢æĪ·ç«¯": 9074,
      "çļĦç¡®": 9075,
      "åħļç»Ħç»ĩ": 9076,
      "æľĢç¾İ": 9077,
      "ĠAlso": 9078,
      "çŃ¾ç½²": 9079,
      "çī©æµ¦": 9080,
      "è¯¥åİ¿": 9081,
      "ks": 9082,
      "ĠæŃ¤å¤ĸ": 9083,
      "å»¶ç»Ń": 9084,
      "ä¸Ńæľī": 9085,
      "Ġbudget": 9086,
      "åĩºè®©": 9087,
      "çŃīéĹ®é¢ĺ": 9088,
      "SS": 9089,
      "å§Ķä¹¦è®°": 9090,
      "èĪŀè¹Ī": 9091,
      "Ġsett": 9092,
      "ä¸ºä¸»é¢ĺ": 9093,
      "éĩįåºĨå¸Ĥ": 9094,
      "å¤ļç§į": 9095,
      "åŃ£åĲİ": 9096,
      "ospital": 9097,
      "DA": 9098,
      "æī¿åĬŀ": 9099,
      "çİĦ": 9100,
      "ä¼ļè®¡": 9101,
      "è´Ńçī©": 9102,
      "ä¸ºå¤§å®¶": 9103,
      "å°±ç®Ĺ": 9104,
      "æ·Ħ": 9105,
      "åıĳæĶ¹": 9106,
      "ç¼ĵè§£": 9107,
      "çļĦçĬ¶æĢģ": 9108,
      "ctions": 9109,
      "ä¸Ģæ³¢": 9110,
      "Ġtele": 9111,
      "èĭ±éĽĦèģĶçĽŁ": 9112,
      "Ġgiving": 9113,
      "æĪĺäºī": 9114,
      "å½ĵä¸ĭ": 9115,
      "å±ĢéĿ¢": 9116,
      "åĽŀåĽ½": 9117,
      "åĪ©çī©æµ¦": 9118,
      "å¨ĩ": 9119,
      "æ»ŀ": 9120,
      "Ġalbum": 9121,
      "urt": 9122,
      "äººå¿ĥ": 9123,
      "Ġpool": 9124,
      "çĶµç«ŀ": 9125,
      "ION": 9126,
      "ĠTHE": 9127,
      "æ¯ĶåĪĨ": 9128,
      "ĠItal": 9129,
      "å¤§å¤§": 9130,
      "ç»ĥä¹ł": 9131,
      "èĵĦ": 9132,
      "sy": 9133,
      "ä¸²": 9134,
      "ä¸Ĭæµ·å¸Ĥ": 9135,
      "Ġble": 9136,
      "åĢ¼å¾Ĺä¸ĢæıĲ": 9137,
      "ä¸ĩäº©": 9138,
      "Ġdise": 9139,
      "æľºåĬ¨è½¦": 9140,
      "Ġcirc": 9141,
      "æŃī": 9142,
      "ĠProgram": 9143,
      "oid": 9144,
      "Ġçİ°åľ¨": 9145,
      "æı´åĬ©": 9146,
      "èµĽçļĦ": 9147,
      "hens": 9148,
      "Ġdeath": 9149,
      "atives": 9150,
      "çŁ³æ²¹": 9151,
      "EM": 9152,
      "Ġtarget": 9153,
      "ç©¿ä¸Ĭ": 9154,
      "çĤ¹èµŀ": 9155,
      "å½¤": 9156,
      "ĠCanada": 9157,
      "ä¼Ĳ": 9158,
      "åĪ°çļĦ": 9159,
      "æĲ¬è¿ģ": 9160,
      "çĻ»éĻĨ": 9161,
      "æ³°åĽ½": 9162,
      "çĶ¨æĿ¥": 9163,
      "ĠIT": 9164,
      "Ġplaces": 9165,
      "porary": 9166,
      "å¤§å¸Ī": 9167,
      "éĺ²å®Ī": 9168,
      "ä¹Łæ²¡": 9169,
      "å¾Īå®¹æĺĵ": 9170,
      "ä¿¡æģ¯åĮĸ": 9171,
      "è£ķ": 9172,
      "itation": 9173,
      "arrow": 9174,
      "åįģåħ«å¤§ä»¥æĿ¥": 9175,
      "Ġencoura": 9176,
      "ĠÂ£": 9177,
      "Ġadult": 9178,
      "ä¸ŃåĽ½çī¹èī²": 9179,
      "Ġstreng": 9180,
      "Ġsupply": 9181,
      "èģª": 9182,
      "ä¸ĩäººæ¬¡": 9183,
      "åŃĲå¥³": 9184,
      "Ġconven": 9185,
      "ä¸»åĬĽ": 9186,
      "æİ¥çĿĢ": 9187,
      "æĪªåĽ¾": 9188,
      "åºĨç¥Ŀ": 9189,
      "ä¸įæĥ³": 9190,
      "åī§ä¸Ń": 9191,
      "éľ¸æ°Ķ": 9192,
      "ä¹Ļ": 9193,
      "ening": 9194,
      "éĢ»": 9195,
      "æ¬¾è½¦åŀĭ": 9196,
      "åĪĽæĦı": 9197,
      "Ġdedicated": 9198,
      "asc": 9199,
      "èµĦåĬ©": 9200,
      "Ġpo": 9201,
      "æ¾İ": 9202,
      "ira": 9203,
      "å¼Ģå±ķäºĨ": 9204,
      "Ġæľ¬æĸĩ": 9205,
      "ç¼ĸåĪ¶": 9206,
      "Ġserious": 9207,
      "å½¼": 9208,
      "Ġ60": 9209,
      "ĠFlor": 9210,
      "å¯¼å¸Ī": 9211,
      "äº¤éĢļè¿Ĳè¾ĵ": 9212,
      "EDG": 9213,
      "æĨ¾": 9214,
      "è¡¥åħħ": 9215,
      "Ġenh": 9216,
      "An": 9217,
      "äºĶå¤§": 9218,
      "VP": 9219,
      "Ġdelivery": 9220,
      "__": 9221,
      "é©¬æĭī": 9222,
      "çļĦæ¸¸æĪı": 9223,
      "gar": 9224,
      "æľºåĻ¨äºº": 9225,
      "cel": 9226,
      "ologies": 9227,
      "Ġsym": 9228,
      "ancy": 9229,
      "ç¦ģæ¯Ĵ": 9230,
      "çĦ¦çĤ¹": 9231,
      "æĸĩçī©": 9232,
      "Ġcomfortable": 9233,
      "Ġsites": 9234,
      "åŃ¦æľŁ": 9235,
      "formation": 9236,
      "éĩİçĶŁ": 9237,
      "ael": 9238,
      "mission": 9239,
      "Ġreach": 9240,
      "ç½ĳçº¢": 9241,
      "Ġlevels": 9242,
      "æĬļ": 9243,
      "å¯º": 9244,
      "Ġç¼ĸè¾ĳ": 9245,
      "Ġorganiz": 9246,
      "ä¸īè§Ĵ": 9247,
      "çĿ£å¯¼": 9248,
      "Ġcosts": 9249,
      "Ġhigher": 9250,
      "ocol": 9251,
      "Ġimm": 9252,
      "Ġhour": 9253,
      "èĭıå·ŀ": 9254,
      "é£İæĻ¯": 9255,
      "aries": 9256,
      "åĨĪ": 9257,
      "Ġhear": 9258,
      "ĠIndian": 9259,
      "vest": 9260,
      "åīįä¸ī": 9261,
      "è´§å¸ģ": 9262,
      "Ġeye": 9263,
      "åŃ¦æł¡çļĦ": 9264,
      "Ġlikely": 9265,
      "é¥¼": 9266,
      "APP": 9267,
      "ĠTex": 9268,
      "æīĳ": 9269,
      "éĳ": 9270,
      "ç±³åħ°": 9271,
      "ronic": 9272,
      "rought": 9273,
      "Ġexperts": 9274,
      "ç¾İæľ¯": 9275,
      "imately": 9276,
      "çĤ«": 9277,
      "çī©è´¨": 9278,
      "ĠDevelop": 9279,
      "Ľèµ·": 9280,
      "ä¸įå¼Ģ": 9281,
      "Ġhor": 9282,
      "è¦ģè¯´": 9283,
      "ä»Ķç»Ĩ": 9284,
      "æ°ĳæĶ¿": 9285,
      "ĠFound": 9286,
      "Ġboy": 9287,
      "åĩ½": 9288,
      "èĳĽ": 9289,
      "Ġgoes": 9290,
      "åĭ¾": 9291,
      "åįļçī©é¦Ĩ": 9292,
      "Ġuses": 9293,
      "æĸ°èĥ½æºĲæ±½è½¦": 9294,
      "Ġprofessionals": 9295,
      "pre": 9296,
      "çĳŁ": 9297,
      "çī©çĲĨ": 9298,
      "å¥ĭæĸĹ": 9299,
      "å·¥ä½ľéĺŁ": 9300,
      "æĤŁ": 9301,
      "Ġowners": 9302,
      "Ġstrateg": 9303,
      "Ġcause": 9304,
      "Ġindividuals": 9305,
      "éĢĢåĩº": 9306,
      "å¤§çģ¯": 9307,
      "Ġwelcome": 9308,
      "Ġcommit": 9309,
      "Ġpolicy": 9310,
      "andsc": 9311,
      "zi": 9312,
      "çļĦä½ľçĶ¨": 9313,
      "Ġnote": 9314,
      "å°¬": 9315,
      "çĻĮ": 9316,
      "ĠåĽłä¸º": 9317,
      "ç§ŁæĪ¿": 9318,
      "åĪ¤æĸŃ": 9319,
      "Ġèĩª": 9320,
      "ä¸ĩåĲ¨": 9321,
      "åĩ»æĿĢ": 9322,
      "ä¸Ģèµ·æĿ¥çľĭçľĭ": 9323,
      "Ġcannot": 9324,
      "Ġimpress": 9325,
      "Ġappoint": 9326,
      "æĻ¯è§Ĥ": 9327,
      "å¹´çºª": 9328,
      "ĠSee": 9329,
      "Ġu": 9330,
      "ederal": 9331,
      "å®ŀçĶ¨": 9332,
      "CBA": 9333,
      "åĮħåĲ«": 9334,
      "idered": 9335,
      "çĽ²": 9336,
      "Ġneg": 9337,
      "é¾Ļå¤´": 9338,
      "å®¡è®¡": 9339,
      "Ġlisted": 9340,
      "ä¸Ģçīĩ": 9341,
      "èµ¤": 9342,
      "æľĪä¸Ń": 9343,
      "Ġæľ¬æĬ¥è®¯": 9344,
      "Ġrather": 9345,
      "Ġinternet": 9346,
      "æĶ¶éĽĨ": 9347,
      "çī©åĵģ": 9348,
      "èĲį": 9349,
      "çļĦæķħäºĭ": 9350,
      "ĠFacebook": 9351,
      "å¡Į": 9352,
      "band": 9353,
      "2008": 9354,
      "ä¹Łè®¸": 9355,
      "ä¸ºæŃ¤": 9356,
      "ĠMr": 9357,
      "èº«é«ĺ": 9358,
      "Ġintegr": 9359,
      "åĪĨå¸ĥ": 9360,
      "èİŀ": 9361,
      "Ġbi": 9362,
      "äººåĿĩ": 9363,
      "å¼Ģå±Ģ": 9364,
      "ä½ıäºĨ": 9365,
      "åıĳå¸ĥä¼ļä¸Ĭ": 9366,
      "Ġdepend": 9367,
      "éĴĪç»ĩ": 9368,
      "Ġå¹´": 9369,
      "inter": 9370,
      "CC": 9371,
      "åľ¨åĮĹäº¬": 9372,
      "ĠIsland": 9373,
      "Ġwish": 9374,
      "Ġbathroom": 9375,
      "ĠRoad": 9376,
      "Ġthous": 9377,
      "å¥½åĥı": 9378,
      "æİĴä½į": 9379,
      "éĳ«": 9380,
      "ä¸įæķ¢": 9381,
      "Ġremember": 9382,
      "igation": 9383,
      "æĢ§åĴĮ": 9384,
      "ä¾¿å®ľ": 9385,
      "Ġschools": 9386,
      "ded": 9387,
      "Ġé»Ħ": 9388,
      "ç¼Ŀ": 9389,
      "ĠTop": 9390,
      "çļĦæľºä¼ļ": 9391,
      "ç²Ĵ": 9392,
      "Ġdiv": 9393,
      "Ġconc": 9394,
      "å¤§ä»Ļ": 9395,
      "æ¹ĥ": 9396,
      "Ġtag": 9397,
      "åħ¨åŁŁ": 9398,
      "ç»¿åĮĸ": 9399,
      "é¼»": 9400,
      "åŀ«": 9401,
      "é¤Ĳåİħ": 9402,
      "Ġexpress": 9403,
      "æĦŁåĬ¨": 9404,
      "æĸ°åŁİ": 9405,
      "ä¹Łæĺ¯éĿŀå¸¸": 9406,
      "Ġearn": 9407,
      "ä¾ĭå¦Ĥ": 9408,
      "åįıåĲĮ": 9409,
      "åį«è¡£": 9410,
      "Re": 9411,
      "æĢ»å±Ģ": 9412,
      "éĻĲå®ļ": 9413,
      "ç§Łéĩĳ": 9414,
      "Ġfiles": 9415,
      "åİ¿éķ¿": 9416,
      "Ġ27": 9417,
      "âĢĵ": 9418,
      "æĺķ": 9419,
      "æŃ¦ç£Ĭ": 9420,
      "æĬ¥éģĵç§°": 9421,
      "ĠAssociation": 9422,
      "Ġreplace": 9423,
      "åĮĸåŃ¦": 9424,
      "èĤ¡å¸Ĥ": 9425,
      "Ġimplement": 9426,
      "å¸Ĩ": 9427,
      "æ³ķåĪ¶": 9428,
      "Ġfinish": 9429,
      "çļĦåŁºç¡Ģä¸Ĭ": 9430,
      "Ġaf": 9431,
      "ĠSpe": 9432,
      "Ġexhib": 9433,
      "inner": 9434,
      "Ġblock": 9435,
      "iced": 9436,
      "ç»Ħéķ¿": 9437,
      "Ġbroad": 9438,
      "ĠInternet": 9439,
      "ĠçĶ±äºİ": 9440,
      "ils": 9441,
      "ç¤¾äº¤å¹³åı°": 9442,
      "Ġhop": 9443,
      "å¤ĸçķĮ": 9444,
      "æ®µä½į": 9445,
      "oe": 9446,
      "è°ĥæİ§": 9447,
      "Ġtal": 9448,
      "Ġmother": 9449,
      "è¶Ĭéĩİ": 9450,
      "åĵģç§į": 9451,
      "è¿ŀèĥľ": 9452,
      "ä¸¤ç§į": 9453,
      "Ġgraph": 9454,
      "ä¸ľäº¬å¥¥è¿Ĳä¼ļ": 9455,
      "Ġled": 9456,
      "æ°Ķåľº": 9457,
      "FP": 9458,
      "çİ°çĬ¶": 9459,
      "åĪĳäºĭ": 9460,
      "å¯¹åħ¶": 9461,
      "Ġlower": 9462,
      "Ġfashion": 9463,
      "è®©æĪĳ": 9464,
      "å¤®è¡Į": 9465,
      "Ġè¯¥": 9466,
      "å®ŀä½ĵ": 9467,
      "Ġmovie": 9468,
      "ĠOpen": 9469,
      "Ġemployees": 9470,
      "å®īå¸Ĥ": 9471,
      "Ġfant": 9472,
      "agram": 9473,
      "åľ¨åīį": 9474,
      "ç¿°": 9475,
      "ä¸įä»ħä»ħ": 9476,
      "çļĦåİĨåı²": 9477,
      "Ġspeed": 9478,
      "æĹ¶åħī": 9479,
      "ç¤ºèĮĥåĮº": 9480,
      "åĲĦçķĮ": 9481,
      "æĥħäºº": 9482,
      "å°¤æĸĩ": 9483,
      "!!!": 9484,
      "ä¸Ģçľĭ": 9485,
      "Ġreve": 9486,
      "ĠNews": 9487,
      "å¼Ĥå¸¸": 9488,
      "å¹´ä»¥æĿ¥": 9489,
      "Ġä¸ºäºĨ": 9490,
      "Ġsweet": 9491,
      "ç¾İå¥½": 9492,
      "onse": 9493,
      "èĥģ": 9494,
      "çİ»çĴĥ": 9495,
      "Com": 9496,
      "çĶ·äºº": 9497,
      ".âĢĿ": 9498,
      "å¹¿å·ŀå¸Ĥ": 9499,
      "éĻĮçĶŁ": 9500,
      "Ġprec": 9501,
      "åıĳçļĦ": 9502,
      "ä¹Łä¸įä¼ļ": 9503,
      "ĠMet": 9504,
      "2011": 9505,
      "æ£ī": 9506,
      "unning": 9507,
      "ĠRuss": 9508,
      "Ġwhe": 9509,
      "æ¸ħåįķ": 9510,
      "ĠĠ": 9511,
      "æ¾İæ¹ĥ": 9512,
      "dy": 9513,
      "è¿ĶåĽŀ": 9514,
      "åİ¿æĶ¿åºľ": 9515,
      "At": 9516,
      "å½ĵæĹ¥": 9517,
      "æ±¡æ°´": 9518,
      "Ġä¸Ĭ": 9519,
      "rup": 9520,
      "å°½éĩı": 9521,
      "çıŃåŃĲ": 9522,
      "OW": 9523,
      "åıĪæĺ¯": 9524,
      "Ġproud": 9525,
      "nown": 9526,
      "ç»Ĵ": 9527,
      "è¿Ļå°±æĺ¯": 9528,
      "çĹħäºº": 9529,
      "ĠAnn": 9530,
      "itter": 9531,
      "è®¢åįķ": 9532,
      "å¼Ħ": 9533,
      "Ġrock": 9534,
      "çº¿çļĦ": 9535,
      "é¢Ĩå¯¼å¹²éĥ¨": 9536,
      "çīĪåŀĭ": 9537,
      "å±±è¥¿çľģ": 9538,
      "How": 9539,
      "ä¸įåľ¨": 9540,
      "Ġthinking": 9541,
      "gu": 9542,
      "å¤ĸçļĦ": 9543,
      "çº§çļĦ": 9544,
      "night": 9545,
      "æĭĽæłĩåħ¬åĳĬ": 9546,
      "è°¨": 9547,
      "Ġinterview": 9548,
      "Ġlanguage": 9549,
      "Ġdouble": 9550,
      "ĠEuropean": 9551,
      "Ġconduct": 9552,
      "åŃ£èĬĤ": 9553,
      "æľīä½ł": 9554,
      "é¢Ĩåıĸ": 9555,
      "Ġhtt": 9556,
      "ç²¾å¿ĥ": 9557,
      "æ½®æµģ": 9558,
      "åĲĪèµĦ": 9559,
      "iling": 9560,
      "Ġbackground": 9561,
      "ĠSch": 9562,
      "MP": 9563,
      "è®²è§£": 9564,
      "ç£ħ": 9565,
      "æĸ°èµĽåŃ£": 9566,
      "åĢ¼å¾Ĺä¸ĢæıĲçļĦæĺ¯": 9567,
      "Ġcollabor": 9568,
      "çĶµæ¢¯": 9569,
      "useum": 9570,
      "æĬķç¥¨": 9571,
      "å»¶ä¼¸": 9572,
      "ä¸ĭä¸ĢæŃ¥": 9573,
      "Ġwear": 9574,
      "æŀ£": 9575,
      "Ġlost": 9576,
      "çģĮ": 9577,
      "Ġimmed": 9578,
      "esome": 9579,
      "Ġdelic": 9580,
      "çļĦé¦ĸ": 9581,
      "ä¾§éĿ¢": 9582,
      "åī¯ä¸»å¸Ń": 9583,
      "Ġlots": 9584,
      "rel": 9585,
      "è¦ģçŁ¥éģĵ": 9586,
      "td": 9587,
      "èĩªè§ī": 9588,
      "äºīåıĸ": 9589,
      "å¤ĸåªĴ": 9590,
      "Ġlux": 9591,
      "äº§éĩı": 9592,
      "åħ¥æīĭ": 9593,
      "è¾¨": 9594,
      "å®ģæ³¢": 9595,
      "ä¸ĺ": 9596,
      "åľ¨å¤§": 9597,
      "Ġnature": 9598,
      "åįĹæµ·": 9599,
      "éĤ±": 9600,
      "ç®¡æİ§": 9601,
      "çĶŁæĢģçİ¯å¢ĥ": 9602,
      "Ġlimited": 9603,
      "åº§è°Īä¼ļ": 9604,
[...]
